memory_initialization_radix=16;
memory_initialization_vector=
05 26 2F 23 0E EC FC 25,
B3 F3 FF FB E6 E8 0C CA,
2F 42 EE 1F E2 F7 AE 38,
20 22 F5 E6 DB F9 16 FD,
FE 2E F4 E8 BC 13 07 D8,
C5 E5 10 E8 BE EF EC D8,
E4 01 04 24 01 ED F1 C9,
F7 21 E2 14 41 0E 07 DC,
26 02 E4 E5 ED 22 3B 37,
21 E3 1B FF 02 EB E0 27,
F3 D8 F0 1B 0E 0B 02 D9,
23 DE 24 E7 15 F3 08 E9,
F8 D7 06 4B EC E4 F7 F0,
E7 E9 BD DB FF 31 3F F5,
EB FA F8 FA F7 C9 04 3A,
ED 13 D6 C6 20 19 E8 12,
14 FD 10 1C F2 39 F8 E8,
28 D7 F9 EF D6 F2 40 FE,
10 F8 06 04 15 E0 2B D2,
08 12 F5 FC DE D5 20 D9,
23 E7 16 E7 BE 04 09 F3,
00 E1 EF D0 FD BD DF FE,
DB DB 03 21 13 4A CB 43,
EF FE 36 D5 1C 1B BC 06,
2D 12 DE 15 41 F9 22 E4,
07 F1 E6 0B 03 EA EB 15,
ED 0B C2 E5 E6 10 C0 01,
E9 FD F5 EE 07 28 DA 30,
F6 00 08 02 CD 09 1A E5,
36 EF F7 DE 25 07 11 15,
06 0F F3 E4 E5 E4 15 E8,
E6 08 26 E8 23 FB E5 EF,
25 10 EA FC D7 1E FC E5,
FC D8 0D 16 E3 0F 40 DE,
E9 D4 0C BA FA 09 2C DD,
E3 1D 0E 05 E9 E5 D9 FE,
C5 06 E7 06 0B 25 DE CE,
1B 2B DD 22 E0 E2 F1 1F,
19 10 07 17 12 F7 FC ED,
E9 D0 08 0F F9 F6 EF F2,
06 07 06 FE 08 CF 1C D9,
E4 1B 30 FD 08 04 F6 02,
DB FE 27 FA DB FB 19 4F,
D8 E8 FA EE 07 D0 FF 05,
E3 2D E0 F0 FB EE F7 DF,
0E 1E EC F0 10 E8 33 CE,
F6 30 02 E5 07 06 BF EC,
C6 ED D8 AC DF 02 06 49,
24 FA D5 DD 17 E7 FD D4,
15 0D ED D9 09 E8 17 0A,
07 00 23 16 BD BF DC 21,
F6 F9 03 DC EB 31 38 DD,
DA 1B E7 F1 2D 08 09 05,
CF E8 EC E9 1F 0D 13 11,
1A FF E3 0C 09 14 1A 2A,
06 12 01 03 D0 1A DD FD,
D5 E8 3B EB 1E C4 C4 0C,
09 05 04 F4 16 EE 38 DA,
E7 F1 E4 16 01 BB 2B 01,
FA C3 10 ED F6 1B 00 F6,
1F F0 FE 00 C8 FF 15 F7,
00 1B 2F E4 F3 05 EF 34,
04 14 F4 F1 E3 D9 20 E6,
23 21 E5 E6 FE F0 03 2F,
06 FB FE 30 09 E9 0E 0E,
F9 00 26 03 DB FC 02 09,
10 F2 1C EF 1A C7 C9 11,
01 2C C6 C3 64 0C 10 F0,
0A EA 06 27 EC 14 BC 1F,
BE DA E8 11 BC 05 0F E2,
FD F2 F0 DB 10 03 DF F4,
0D 01 E5 EA 1B EF E9 1A,
BD FF FE 03 20 B4 F4 28,
E3 D3 C8 3C F1 F7 DC 31,
10 E8 11 09 D8 FD 27 D3,
E7 33 FF 23 C3 03 10 01,
E3 0B 0E D4 0B F8 F1 3D,
25 14 10 21 F0 EE 1C 17,
FC E3 D2 CA EF D6 14 22,
EB 21 C3 F0 E4 1E DE 09,
D9 11 06 0A E6 14 06 EC,
DC 04 06 01 EF DE 02 C7,
15 17 EA FC F4 E9 09 B5,
E0 2A E1 F8 FE 03 29 0E,
C6 E4 13 0C E4 F7 29 F9,
EE 0A 0E CA 01 10 17 37,
07 21 1A 19 CA EB ED 04,
10 DA C8 F6 10 E7 03 03,
0C 12 F8 D6 0E 05 E4 5F,
FB E8 FE FF 03 ED DF CB,
02 00 0B EF F7 1F 26 DE,
03 E2 FC F9 13 19 D1 1F,
F3 2D 05 18 FA E8 18 DC,
0C E3 CF EE FB DC 00 FF,
FB 23 F4 36 0F EC 32 F4,
C7 1B 00 0A E3 F2 DE F2,
18 0C 2A FB 0D DC 00 E4,
FC D7 1E 0B F4 04 15 E9,
20 CF 1C 2E 32 DD 1C E6,
06 13 15 19 11 1A 26 E8,
D4 30 01 36 29 C1 F3 22,
16 E4 06 D3 F1 E0 30 14,
E3 25 F8 E4 17 1D 16 D8,
EF 3B D3 F5 FF E8 CF FC,
E5 21 E4 15 19 D7 22 E4,
06 B7 68 20 B2 20 D4 10,
03 FD DE 1E 0C F6 D6 3D,
15 28 F0 DE F5 04 0A 2C,
A2 00 13 FD CC 03 04 2C,
08 32 D8 F2 F3 10 2C 09,
EA F7 19 15 D2 F8 E7 05,
11 F8 E0 FC 22 F1 FF E9,
DF E0 C1 40 08 C0 F0 0F,
27 2D F3 0C 25 11 F1 E5,
EF EC 31 EF 27 EB 00 FD,
08 26 E9 EE FF F8 D6 18,
09 D9 FD 0D 27 04 F9 EF,
0D 01 F6 E4 00 EB 08 05,
15 2A 0B 27 FE 3E F3 F0,
08 D9 2A 20 EE E6 04 C9,
33 07 2E F5 E5 2E 1D 19,
3A FE E2 D7 0A D5 44 3A,
1B 2F E3 43 00 03 05 98,
D2 DD F4 CB C8 32 BA E8,
05 FE D7 BF 17 FA 34 05,
E1 40 15 ED D8 D3 F5 1F,
21 EB 31 05 D3 0B 03 28,
09 24 2D A8 17 02 F4 07,
1E A8 F8 0A 1E 02 1D CC,
F3 1D CD FB E9 DA 2C 3C,
EA F6 CD EF 1B 1A 1B E7,
11 14 F3 17 24 FF C5 F0,
12 2A 1A E2 07 E0 F3 F4,
0B 1D 18 FE DB E0 C1 FB,
DB F5 09 BF FB 24 EA B5,
00 04 4A BC DA 12 DA B5,
21 09 E0 10 EF 22 F5 08,
20 2F F5 DE 0A D1 0C FB,
DA F8 D8 0B 5B 01 04 10,
2C C9 E0 01 F9 F8 F2 FB,
F0 E7 08 F6 CA DF 10 C0,
D1 E0 DA F0 28 08 FE 00,
FE 13 F7 0B 1D 31 E5 19,
0A 01 E9 1F 31 0C 27 D8,
EF FD 07 EF D3 C1 D2 15,
1D EA D6 06 02 11 14 04,
F3 17 12 BD CF 0C EE D7,
05 42 FA 08 1C 17 F8 E9,
F1 0D 2B 14 32 ED 1F 1C,
61 E3 16 1C F7 21 14 22,
EB 0F EC F0 FB 01 16 34,
A8 DF F9 1D 17 0D 14 19,
EF DD 41 19 F6 DB 13 F2,
23 2A FD 12 1C EF 2C E1,
15 A6 05 F4 0A E6 FF F9,
06 09 F4 CD EC E7 0C 03,
08 0A EA F0 11 D3 24 31,
1A 04 2F E5 FB 03 13 02,
A8 F7 03 36 F3 F1 26 26,
D0 FE E2 17 F5 51 F9 E6,
18 E3 F7 D9 E4 10 F3 2C,
FA D2 1B D7 F9 F5 D0 E4,
F9 0F EC 49 1F CE FA E5,
D8 08 EE F5 43 F3 F0 39,
1C 37 A8 FE 0F C2 F2 FC,
CE CF 0B F1 DA 19 4B 18,
07 11 0D D1 FC 1E 0F E0,
0B F5 D3 EC E1 0D C6 E0,
16 21 BC EB 06 FE 07 03,
E3 FF 08 28 15 31 D4 E4,
EF C9 08 E2 F6 F4 0D C4,
06 0E 23 0B 1A F5 07 E3,
FB EE 20 EE 0B 0A EE 26,
FA 01 05 21 E6 C2 E0 F3,
02 1A 1A DE 0E FA E1 B5,
14 F3 07 E8 42 F8 E9 C1,
0A FC F6 E0 C3 01 26 19,
E6 E9 F2 F4 36 00 04 17,
D4 4B 4D CC 23 C4 29 FC,
20 11 D5 D6 F6 12 E5 EB,
FD 0E 2C FB 3F 07 EA 17,
21 DE CE 1E 13 CC 17 02,
E8 0E 2B 01 0B 16 15 25,
E0 E1 29 26 12 0C 07 18,
C8 00 06 22 0D 01 FF E5,
10 1F DE 13 27 C9 F1 45,
E5 FA 1D 29 29 39 05 F0,
16 22 23 F1 E9 D3 14 02,
02 16 E9 15 1E F2 39 20,
12 F0 B2 18 1B F9 0B 2B,
E5 01 03 EB 07 B4 C7 00,
29 E6 D6 10 C3 01 ED F2,
02 F0 0F E3 35 1C 36 0D,
3C 04 08 D6 0D F7 33 DF,
F5 E3 EA D1 2C F0 04 E7,
04 03 E6 1A E5 F8 11 DA,
FB 19 F2 F9 06 EF 17 ED,
F0 FF 2C 19 FD 32 26 28,
23 D2 CA 3B FD 36 EB 33,
14 F7 1E 06 27 C4 D3 EF,
21 DE 4B DA DE 0A D3 CE,
CC 14 0E E4 F4 14 D7 10,
F4 D7 12 F1 23 05 CA 55,
B3 F6 F5 43 F0 21 F8 E6,
D1 F5 E6 05 F5 21 F1 1F,
17 22 31 C8 04 FA FC FB,
0B F5 D2 E4 0A EB 06 2E,
EF C5 C8 EE 0C 30 F7 E5,
FD D0 07 3F E6 0F 3B E2,
25 EE F7 EC F9 E9 B0 0A,
08 23 E5 12 FA F5 FB 09,
F9 FF FC 29 0E 0B F1 F0,
FB 22 FC D9 FC 16 DF 05,
DE E5 25 B4 CB 0F CD F5,
21 1B E8 FB E1 F9 0A F9,
05 FB 12 0F E0 F6 F9 17,
EB 08 F8 FC 02 FD 22 E4,
EA EF F3 E4 27 E6 08 D6,
15 2A FC E7 D2 F2 E4 1C,
FB F6 07 14 21 14 CD 07,
EF 0F 03 00 D2 F6 FE EF,
05 E0 FE FE F9 0A C4 EA,
03 26 15 02 08 E8 42 1C,
D7 1D 42 26 C5 FE 14 F9,
D8 27 0E 18 D8 E9 43 0E,
F1 46 26 E7 2E 0C C3 00,
FB DC D0 32 F6 F1 F3 F3,
F8 01 0A 45 19 15 EF D0,
24 F4 1B FC E9 FE F0 F1,
22 0E 0C DB 72 3E FC 11,
BB D7 01 EF D9 2C 03 06,
07 BF ED C7 F4 17 21 1B,
00 BC E4 0F 0E 2F F8 FA,
03 C9 FE FF 15 11 F1 EE,
DB 16 16 DE E0 12 10 26,
E0 EE F7 23 EF 1C 13 E8,
23 11 22 2B 1F 35 0C 0E,
0C FE D1 1E E0 07 DE F0,
EB 20 F3 0B CF 2B 39 17,
CA 22 07 E4 F4 DD 2E 20,
14 19 0A 0A 25 E9 D9 13,
27 16 F3 2F F4 21 E6 FE,
0B 08 0E 0E D7 CA CE FD,
17 09 1E F4 22 FE 2D 1D,
DB EB E6 F6 E2 35 C0 04,
BE 11 FE AC 34 00 FA F0,
24 01 07 FD 27 F5 03 1E,
0E 04 12 F1 F4 ED 0D E0,
0C 1F EF CF 0E 01 F2 CD,
AD 02 3C FA F4 18 02 01,
0B 11 E4 E4 1C 18 DF E9,
E5 E7 0F 11 FF 1E 01 0E,
D5 E5 F7 F3 B0 43 F4 23,
13 02 DB 22 38 FE 14 FE,
21 F0 0F 10 21 08 08 EB,
DC 06 11 F7 37 1C B3 07,
E2 51 EC F4 1D 14 FF 0D,
10 BF 07 E3 DB E9 D8 E6,
21 24 F8 F2 3F FB 0C 0B,
13 25 12 F7 1B FB 1F 0B,
E9 DE E6 49 0D F2 30 32,
D9 09 D9 02 14 19 0C 33,
06 F9 E6 10 E2 F7 39 F1,
F3 D4 27 DE 00 22 EF F0,
31 E3 06 D1 22 E7 00 31,
26 00 F1 2D F0 CA E4 F6,
E8 E2 12 ED 06 19 01 E7,
EA F3 35 0D F3 31 F6 05,
F0 0C 19 3D 07 03 28 CD,
13 03 F5 E9 12 05 0A 1E,
0F CF 1E D0 F8 F7 FA EB,
F6 0D EB 30 02 09 22 28,
0B EE E9 04 F4 FE 00 F7,
00 1F E9 07 00 FD E6 EA,
FB FA FD F1 ED 4B 1B DD,
FE CD 25 EC F0 C2 02 41,
0D 10 23 E0 CA EA 31 0D,
DD 0C 0A C7 13 E8 F9 F7,
D7 03 EF DA FE 02 D3 E3,
1B 0E E1 E3 0A B8 25 EF,
C7 01 FE 17 05 DB 1A 2C,
0B 1B 00 D2 11 D5 EF 1E,
FB DC F1 F6 C5 F3 19 EE,
FC FB E2 EE 04 FF FD F7,
29 FA F9 E1 0C F2 E9 03,
FA 0D F7 F6 F0 CF 0B DB,
E6 E5 F7 FB 15 0B 02 F9,
E9 08 E3 F1 B9 08 F8 E5,
08 FC FF 10 CE E7 2E 1D,
E4 D5 2C DE 07 BD 4A E9,
03 1B F4 0D FD B3 05 E8,
28 21 EF 18 E7 DC 0C 06,
20 18 F9 F2 14 F1 2A F9,
F5 F6 0F 11 E2 00 2E 38,
03 17 D5 01 1F 08 22 1B,
C4 F6 0D 05 2D CE 3B 0A,
00 17 1E F4 F1 56 21 F3,
F5 0F 15 FB EB 00 F5 18,
0F 01 24 D9 06 01 DE D9,
DA C3 19 E2 07 04 DD 01,
F9 E4 EF FB E8 30 1F 02,
11 DB 38 00 50 E4 F2 FF,
F6 03 DA 09 EF BB F7 F6,
18 AF 0F EB DA FC DE 02,
F9 FB F0 E3 01 22 2D C3,
00 FC EB 15 0C 02 06 F0,
FB 09 19 2D 15 EE CC 24,
E7 30 1D CE E7 1D E5 0A,
25 04 D0 FC EC 27 1F F7,
F4 0B DB FA E9 42 F9 E8,
F1 FE FF D6 D4 20 28 2D,
F1 ED DC DF F8 EE D0 9A,
E5 11 08 F2 07 CA 22 EB,
0E 12 10 F9 1F E6 EC EB,
DF 05 E5 FA DB F8 23 F4,
C5 13 DF FF 0D 0C B3 04,
E1 1D E8 E3 D3 B4 1E 21,
F2 F9 F1 F6 37 CD 04 FB,
22 F7 01 F0 2F F2 EB E5,
FC FA EB 18 11 2F FD 11,
05 0B FD 24 11 1C 01 D9,
14 53 02 FD D3 F3 34 F6,
D1 1B E7 E7 EC 27 BE C6,
0A DB FD FE 58 D8 32 E2,
0A 22 EF F2 1A ED 29 E2,
0F 24 E7 16 0F 26 08 E7,
DB E6 02 F7 F4 08 37 22,
05 46 E7 0F DB E0 2E 0A,
0E 06 E7 1B FC EC 12 EF,
EC C9 F1 17 D4 28 EB D9,
FA 30 E5 26 E3 D6 EB 04,
1C FF 0C F3 EC F2 2C 59,
05 00 F1 38 FF E2 0A C1,
00 18 DA 1F 33 1E 04 08,
D8 F2 24 2C 07 0D 2B F7,
07 D8 44 E4 07 13 2A 00,
20 E5 17 04 13 31 D6 19,
DD DA 09 B3 FA 2E 1D 0D,
F0 D2 BD E0 19 DC 03 21,
39 EF F4 D9 13 0D F1 27,
EC 00 F1 1C B6 2B 03 0C,
F1 E9 F4 57 F7 1D F5 DB,
05 00 FD 2B 00 21 2F 06,
E7 F8 20 E2 0E D9 2C F4,
17 05 FC 05 2E D2 D3 DD,
0E 07 31 22 08 E4 0D 1C,
F8 27 E1 D9 FA 2E FD 22,
21 D9 F4 EC DA 02 D8 E4,
CC 39 EE 3B 27 02 CC BC,
1B FB FB D3 0F FE C3 FF,
07 0F 1F 22 04 17 E4 FB,
08 F3 28 CD 11 FC E9 20,
CA 12 0C 0C EA 19 DD B7,
DA E6 DD BD FC 01 2D F4,
EA 03 33 39 DF 29 1E D3,
19 E0 DD E1 E2 D2 35 DE,
FF 30 D7 09 0A F8 DD D5,
09 14 F3 1D 38 DC DD 21,
F9 ED 00 17 FD 0B F5 01,
19 EE 1C DE E6 08 F6 0A,
C4 0E FC 07 FF 04 17 19,
25 3F 31 12 D6 11 DF 9B,
F1 0B E4 0A DC 31 D2 E5,
39 D9 13 D2 01 03 07 29,
12 E3 E1 20 04 E7 F6 EF,
0E 10 06 06 E0 F9 CF FF,
E0 F5 DB F1 D1 D2 C7 F8,
0B 18 F3 F6 13 07 24 FA,
EC 06 28 F9 F5 F1 24 07,
F6 22 1C C6 24 DD 15 D0,
29 E3 0E 20 18 26 EC DF,
E5 EF FD F3 30 32 1F 0E,
C9 ED 13 1F 23 01 01 03,
BF F3 CF C1 0D F1 EF 28,
13 FE F5 CE F4 E5 01 F6,
F9 F5 FD 0D D2 F7 F3 F9,
E7 12 00 0C 3B 11 F2 F6,
F3 08 2F 2E E6 FC 2E 03,
F4 F6 15 20 06 FF E9 1E,
04 FB F7 09 0D D8 E5 E6,
08 F6 05 FA 17 E9 F7 F1,
BE F8 18 FC 29 C5 FB EA,
E1 1E 07 B2 E4 E2 D1 01,
E3 EC F0 DC E1 EB FC F8,
17 DC F6 0B 25 26 0B E1,
28 E0 E9 1D D5 CD F2 DA,
25 E7 05 E4 E6 10 10 F7,
1D 1A E8 D8 05 D5 EC 18,
00 34 02 06 0E 0D F6 0F,
0E D3 01 08 03 05 F3 1D,
1E 17 DF E6 03 E1 EC 0D,
F6 F3 0B F0 3A 05 F7 34,
00 32 D0 DF 0A 02 06 FD,
1E 11 F3 45 1A E0 0E CB,
B7 36 ED 29 F1 2A 15 15,
F1 F2 11 CB F4 31 1B F0,
DF CF 19 EF 17 E3 0D 12,
BC EB AB 09 F7 E9 F1 E6,
F0 E8 34 13 EC F0 D3 E9,
1F 51 02 F5 24 0F 05 FA,
0D 28 08 F4 FF F0 17 25,
00 1F 0A EF 19 04 43 0E,
04 09 F3 E0 E5 B6 19 EF,
EE F0 30 10 CF 12 3D 01,
FC 0D C7 D7 F6 FC C7 1C,
E6 39 06 D0 24 03 BB E5,
3F D0 1A EB 1B 37 D9 FD,
ED FB 18 2C FF 1D DD FC,
0A 2A 28 FA F7 CF 2D DF,
FA F7 18 9E F8 E7 D6 F3,
EC 05 1F CE 1E 00 25 FF,
10 42 D4 11 06 05 07 E3,
1C 0D F2 2E 03 FC 02 2F,
12 17 EC FB F9 EE E2 E5,
CA EC C2 2E 28 E1 F2 E8,
D2 01 F2 EF 1A EA F4 02,
C7 16 EC D6 F6 12 06 D1,
0E 30 05 03 EF F0 10 04,
D2 D3 1D EA 29 DE 12 12,
4D 2B D1 E5 08 10 E5 CA,
21 F3 F0 CC FC 2C D5 E1,
30 F0 02 FF BD 2F F2 30,
E2 F8 EE ED C6 23 36 32,
D1 F8 ED F7 E5 28 CE 56,
12 F7 D2 CD E1 16 E8 FD,
37 CF EF FE DF F4 09 15,
03 08 F3 E3 07 D8 16 F1,
F1 45 F0 28 B4 20 22 1D,
C9 E2 EA FA 10 1F 1D F1,
F7 1F FC EA 13 FD 15 C6,
21 07 C8 F9 05 2F E0 1D,
ED FA D5 31 FC E1 12 13,
2E EA 0D F3 2A D8 01 FD,
C0 FE F3 FD F1 1F 1C F5,
22 10 D2 FE F1 D8 FB FD,
EE 4E ED EB F7 F4 E6 10,
01 DB FF 05 0E 1A 0C C2,
02 EF 06 FD 08 C4 16 13,
12 01 E7 FC BE 0A F6 EE,
D9 21 26 EF 17 F6 ED FF,
02 02 D2 22 C0 05 21 14,
EB FF 06 FE 2C FA 24 22,
EF FC DE DF 13 F9 32 1A,
4A 25 FF 12 D6 D1 D6 E4,
44 FB D9 06 3C 18 2F 10,
03 01 FC 1C FC 11 1C 18,
01 1B 0D C0 09 DA B7 F7,
08 EF ED DD C8 D8 10 0A,
E6 10 98 F3 F1 B5 12 EE,
1D 08 0A FE 0A FB 15 09,
18 FB 04 41 F6 0E E5 12,
E6 00 0B 13 03 DC FB 66,
0E 3E F5 CB 00 E4 3C 03,
01 12 28 10 F4 22 CE F8,
EB F9 CA EE 29 F4 FD F1,
37 F7 02 C8 2B 06 E2 13,
F7 12 E6 DA 13 E0 2B C9,
28 F5 46 06 29 E5 FC BD,
06 1D A6 DF FA 17 05 D7,
15 BC 1D CE FB CC F2 FF,
FD 2E 02 1D D8 33 D2 1C,
12 F6 DE 0A 01 33 31 0E,
F6 0E DD E2 0B 06 DF D3,
FF 0A 04 D5 02 17 E7 FE,
FC 10 DF F9 E2 DE E3 01,
BE 2B 2C 0C F0 ED 0D DE,
00 F5 DF C1 F8 3F CF 3A,
F3 37 17 F7 FC 02 23 08,
ED 19 E9 D8 30 F5 EA E8,
F1 FC F0 F1 28 E5 E1 D2,
EB FB F5 D8 E3 01 0E 06,
DB D9 D6 0D FF F9 2E 13,
37 CC 29 1F F4 C4 19 D2,
ED 47 2F 2D 13 F1 F8 E2,
E7 13 0A 2A FD E9 E2 EA,
05 1F DF FF D1 EF 28 2B,
24 F2 23 DE 12 F2 36 F8,
E8 0F 02 39 DF F0 D7 C6,
FF FE FE FF 11 D9 1F 39,
01 FB 21 11 F7 EF FE 21,
17 F1 22 00 E0 24 F1 13,
F2 02 BC CC DC 53 09 FE,
2F E4 D3 1E DB D6 15 54,
F5 17 E9 FC 06 F0 37 E8,
E2 04 F3 DF F1 C7 F8 0B,
FD 08 E8 FC 05 EA 30 F2,
02 07 B8 EF 03 28 11 13,
F5 27 F5 D4 F0 5F 01 E8,
19 DA FE 01 B7 30 D3 E8,
00 F7 1A E7 ED 26 FB B3,
05 ED 0B B5 FD 0B 10 E2,
1C E0 FA F4 FA F0 FD FB,
CB 1D 0B 0D EB 21 13 06,
FC 1E 14 16 F1 5F 10 1D,
E8 1E E7 0D 02 FB DE FF,
F2 FF 07 D3 22 10 DB 2A,
D7 F6 FF 8A FB 31 29 1E,
23 FE 1E 0B D9 EB BA FD,
E9 EC FD 30 09 1E 45 F2,
0D 05 F5 DF 2B F9 FA EE,
F7 23 D2 E4 50 02 0F F0,
0F DA 06 F5 1D 0C E3 17,
ED FE 10 13 3D 15 09 F7,
2B EE 0B 2F FF 1F F7 12,
F8 D8 17 FF FD EE D0 F1,
DF F1 E7 E1 23 0E D7 20,
0F 42 34 F5 12 C4 F6 E7,
08 11 DA E9 26 0D 14 10,
DC E6 2A F1 23 27 FE F4,
01 D6 06 0A 28 05 EB 11,
05 E6 0B D8 21 0E FA 19,
F4 F1 10 2B F2 0C 12 F6,
E9 DB 10 3E F8 15 F8 E0,
F0 38 04 12 C5 E2 0D F9,
FC FA F1 E1 EB F9 11 F0,
1B 3D 0A FF 02 DB 31 FA,
08 1F FB DA F6 27 CA 1F,
B1 E8 EB 2F F8 DF D1 15,
CD EC C4 33 FA 04 1C 2F,
CB A7 FE 03 CA 0F 11 FA,
E1 39 12 D9 1C C8 27 28,
22 F8 F8 EA 1B F9 EB 3B,
1A E9 28 37 D5 DB D7 FF,
08 2D 04 C5 FB EA 0D 19,
15 21 1D E8 0F C1 E9 F4,
FE FD 19 F5 0E F2 F6 31,
F8 0F 1A 0F C9 32 05 10,
2C 1D CD DC E7 DC DA DB,
1A 22 03 03 2E F9 C9 0D,
10 1A ED 01 10 E4 2A FC,
23 EB DE 00 0D 0E 0E FE,
CB 3C C2 39 FC E7 E9 F9,
B9 17 F5 E2 EB FA C6 1C,
0F 29 24 EB 3E F7 E6 0D,
DE E9 19 E4 FA FD ED CD,
28 13 01 F1 D1 FD 00 F6,
E6 38 1A ED 1E E5 1C 26,
EF DC DF 21 17 E2 2D FE,
ED 0B 0A 04 02 2D 26 F6,
C4 09 63 01 0B 18 EC 19,
10 1B E6 2A 00 10 2B F0,
DE F7 DE D9 23 26 21 00,
F1 03 18 FB 3F 21 E3 F5,
DE E9 06 1A 3D FA BF 25,
F0 11 FF E7 F0 E8 F3 06,
08 CC CD F6 FB EA D8 F5,
E6 33 E3 FA EC 16 03 ED,
DA 0E 37 EE 01 2D D4 F9,
17 04 E8 23 FA D4 13 30,
F0 FC 01 FE 11 03 09 D8,
F7 C2 03 10 28 DB 1A 07,
D4 0A FA FE 0C E5 FB C1,
FD 16 D0 0E F6 E2 26 0F,
15 3A 0D 1A C9 D8 07 11,
C4 14 D5 02 E9 D0 DD 28,
07 11 00 E7 ED D8 E4 DE,
2B 20 E8 12 16 E6 FA 00,
15 12 ED 3C F8 FF 2B 0D,
1F FC F2 F9 24 28 0E EB,
F5 47 E6 04 11 01 FA EC,
E1 24 F3 CD F3 CB 2D DC,
E2 19 CE D4 BD 2D E6 EF,
EE 0D FC 1D BB DC 01 13,
ED 25 15 F6 FE D5 25 19,
28 DA F1 F8 16 C2 FD DE,
F2 23 FB FF FD E9 F8 3B,
0A 14 13 E4 06 F9 0C 0D,
E0 F4 DE E0 DA CF F8 32,
E4 E4 24 1C F5 13 0D 14,
D9 ED DA 1E F4 EA 12 0E,
28 04 D3 13 E1 F3 2E F9,
0B 1C F5 F9 E9 02 36 E8,
18 E5 13 13 29 F8 E8 10,
21 02 ED DD 1F 13 F0 CE,
1B F7 07 CA FF F5 18 BE,
10 FD DE F2 13 05 20 F0,
F9 E3 EC 00 55 1E EE 36,
E9 1C 14 0D 1C 19 32 F2,
FA F2 06 0D BF 09 F7 06,
FB 12 0A F4 E0 08 11 E7,
F4 F6 0C ED EE 02 46 D7,
D2 EE EE 16 2C 0C D1 08,
14 E7 E5 E6 14 1F F1 FB,
DD B6 13 EB 06 2B 24 E7,
FF 0C F7 D1 FD F0 21 FD,
1E BE 08 D8 03 E4 48 1B,
EA E6 46 39 EE D3 3F B9,
F7 E3 AD F8 FE 1D CF 4D,
FC 19 0C 06 05 EC 2D 1F,
B9 B8 27 08 BA 32 0D E9,
00 15 12 46 03 EC EE 50,
EF ED 05 15 DD 0D B9 EC,
F1 FF A9 12 EE 32 DF E7,
E0 12 F7 0F 0F D4 ED 0A,
D1 29 39 2D E1 09 E5 00,
CE E2 EE DE F4 F2 FE E8,
09 E8 DA 0A 02 00 0F ED,
11 54 DB 1E E6 23 E1 FB,
F6 D9 FB D3 DB FC FA E8,
D6 EF DB 1C 00 1C 22 FE,
CF 0B C1 F8 10 0E EB CD,
0F E8 E2 17 1E BC EA 15,
03 EC FE FD 08 F2 22 27,
E0 F2 0F D1 F7 D9 CC 1B,
EE 19 D5 FE 1D E9 14 D9,
01 0B 06 C4 01 F1 CF E9,
F8 20 E8 F3 FD 36 F7 EA,
13 F3 09 DE E9 DF 0E F3,
F4 F2 0C FC 1E 0D F2 CE,
E6 DB 04 0E 20 02 C9 D2,
4E E2 09 01 0E EF D4 3B,
D5 08 13 0F D7 F2 F2 07,
CF 3A 0E E4 18 F5 F6 12,
06 F6 D9 E9 06 25 D9 28,
27 E3 F1 E7 16 FF DA 1C,
F0 26 F0 1B ED BB 02 BB,
EF E9 F2 FD 2A 26 CE 05,
FA 12 2B 08 BE F5 BF E4,
ED 23 0F 2A E2 2B ED DB,
2E 0A F9 F1 FD 0D FC 02,
E9 07 F5 ED FE 16 FF F0,
41 A8 E3 EF E7 F1 E7 B1,
F4 23 EE 0D EE D9 CD 0C,
F9 FA DC BC CE 35 D1 13,
05 10 3D 11 F7 09 E4 19,
AC 22 E5 01 F8 27 E8 FE,
19 29 11 FD F8 C4 FF F7,
17 1A FF 0E 07 12 E2 28,
A0 19 06 1B 05 09 E6 DE,
FF 00 FB 38 ED 24 19 01,
E5 18 F9 F4 EF FD DD 17,
09 FC 11 F4 D9 E5 F1 DC,
F0 09 F8 1E CE EB 0D 12,
F1 02 1C 16 D3 F8 05 1F,
D8 E4 0C F2 FD F1 DD 19,
F9 13 F4 14 FA DD 11 17,
FA E5 29 0C E6 F6 3C F6,
0B 27 10 C5 F6 B8 80 1E,
FC F8 F8 D2 32 FA F6 30,
DB 45 ED BF FD DE FC FD,
3F D7 09 E8 F7 FC 1C D5,
1A C1 1A E3 DB 22 D1 FA,
09 19 E4 CF F9 EB 08 DF,
E7 44 C6 D8 11 FD 09 2E,
1F 10 EC D9 FC EA 06 EF,
23 29 EF F2 21 F3 FA 21,
E5 1D 2A 14 36 1D D3 13,
09 DF 03 29 18 EC 0F F9,
EF 1E CD F7 05 EE DD F3,
F2 F0 22 FF 00 0A F5 F9,
E5 12 09 CE F0 00 01 E6,
05 F7 EB 20 0C 20 24 0B,
ED 2A FA DD 0A 3F DB 19,
C9 0F 02 F0 F9 CF 0B F9,
18 EF D1 E6 F1 1B 09 11,
22 F6 BF 12 E8 07 50 D1,
C0 D2 10 CE 14 05 02 DE,
D0 F9 F8 05 FB 04 17 EF,
23 09 B8 06 38 26 2A E7,
2B D6 BB EA C2 0F FB 14,
0F D4 0D DD E7 E2 34 29,
F7 34 12 E5 18 FA 21 F3,
0A 19 19 12 36 ED 25 0F,
EF 18 E2 02 04 F7 08 F5,
C2 F5 3A E0 22 09 FE DE,
C9 EB 0A F4 E4 F1 DF FA,
D4 20 0B 1E FF D6 2A ED,
D6 D3 05 09 06 EC 05 09,
E4 F3 1B FD E8 19 33 EF,
C1 06 F2 1F 34 F6 27 EB,
34 FC 31 FE EC E5 28 1E,
05 28 30 02 E8 F9 27 53,
F6 DE F5 FD 03 BA 2F 12,
F5 14 09 EE 0D FB D4 06,
BE CD 32 21 10 E8 F6 03,
1C E1 FD F9 13 F3 14 FA,
FA 28 F3 CE 11 13 F8 FD,
17 18 CD EB 04 FB DD 00,
1C 35 ED E6 D3 E9 F7 0F,
15 E9 EB 1E 04 F9 F0 E2,
0B FC 1D EC DB 1C 31 12,
00 EA 1C 09 03 F9 1F F8,
1C F5 F8 1C 34 09 29 EA,
36 0E D9 1B 06 B2 D6 BC,
E0 F8 E0 15 24 E3 BE 24,
2F CB 1D EC 0B F1 10 C2,
00 F6 FA 15 32 1F F6 02,
DB 29 FB F9 BD 08 36 F2,
FA D7 E0 1A ED DF 46 C1,
22 31 D0 0C F5 DA 00 12,
F3 4E 10 16 2B 18 02 DC,
A5 35 09 18 25 EE 1A 0D,
EC ED E6 00 DE 09 35 FC,
12 02 BD 16 28 0D 4D CF,
FF ED D7 0D 41 FB D6 1A,
23 F6 E9 D0 D5 E3 EA 13,
F5 D2 0E 07 3A C2 29 F0,
FC F3 F2 1F E6 F3 FD 25,
10 17 EE 0D 20 2D F7 11,
36 F3 06 3B 22 54 2F 0E,
CD F0 1D 17 F8 19 03 EB,
49 27 20 FC DA 34 1F 3F,
02 FA EE 53 12 FB 16 F5,
10 F5 04 21 E1 DE EC BB,
F7 17 EF C7 11 C4 17 0C,
D4 D4 0C BA 03 15 F5 FA,
04 FE 24 2F D4 06 DF FF,
1D D3 43 F5 06 F1 26 28,
3D E4 AB 1A 14 ED FB 24,
F8 30 33 D9 F8 EC 01 F7,
CA 06 08 11 02 05 0F 14,
31 F1 EA E1 CF 10 14 1F,
1E E3 EC 48 27 FF DD 11,
04 C0 1C 1D 34 FB 21 EF,
1C 54 E6 05 2A F2 37 F8,
0B 22 F9 A8 ED 08 0A CB,
E8 23 37 D6 B8 38 27 33,
E0 08 E9 F7 1A D9 F0 23,
E9 12 EA E1 16 F6 C8 1F,
D5 01 E4 DD F8 11 04 02,
EB EB CE 20 F6 DF DC E8,
0D E8 3B D5 E1 04 19 F4,
30 EF 0A E2 09 F1 FA E7,
E6 28 E4 27 D9 0B 0A DD,
06 14 F2 E5 1C 57 FF E4,
CC 06 1C D7 1E E7 0D BA,
08 1B FF FC 02 14 E2 E5,
DC 0F 01 D1 0E E5 22 08,
AB 10 FE E2 FB CB 43 1C,
DB E5 09 F9 2C E2 FB F3,
14 1E 0E F6 22 05 33 FA,
FA D7 4E 1A 1E 00 11 DB,
EB FF 36 E1 DB C6 C0 02,
C8 11 15 00 1C CF EC F2,
D1 01 F2 E9 18 D1 1C DA,
F6 F6 F2 F3 D0 45 FC 01,
FB CD 04 E6 F4 D1 1A 02,
01 FE 3A 33 25 14 2C E2,
DA 0E 0A D1 04 DD EB 17,
F9 42 EA 00 E4 27 16 FF,
D3 2A 36 ED 1F 00 02 4A,
F1 13 14 D8 F0 22 CA D3,
40 3C 07 20 08 01 07 05,
D4 FA F5 34 D5 EE F9 1D,
E4 FC 2A F4 FA EC F2 DE,
3C E0 EF F2 20 08 1C F3,
1B D9 0B F1 E9 E1 0B F7,
EC DB 1E FD F4 FA D3 B0,
1A 15 1A E0 04 07 F6 23,
00 0F 1B 0B 25 F9 FD 41,
D1 01 22 E3 E6 EE F1 CD,
13 12 ED EE 12 E7 06 D5,
E6 1F D5 2B FB 01 16 94,
41 D8 30 E3 E4 DB 18 09,
46 0D 19 FA FB D7 17 14,
24 09 F5 FC 05 2E FC DF,
32 B6 EE 21 FA E3 FB 10,
E0 E9 21 ED 27 00 0B 48,
0F F7 E2 F2 1B 0F 31 C2,
FE 9E 47 33 FA 16 1A 14,
EB 15 09 19 01 C6 E3 05,
17 CA F6 09 11 E1 DC 17,
1A 23 08 FC 1E 26 2F 00,
D9 F6 11 09 13 DD 0B 2C,
02 E5 17 E2 F5 DA 16 E4,
0A EA E8 C9 F5 23 09 DF,
2B 2D 0A 03 2A 1E CF 11,
D5 18 44 E9 DE C7 2F 0F,
D1 EE 33 EC EF 29 FC 13,
27 17 1C DB D5 F9 27 09,
FC 14 21 F8 19 48 F3 DA,
24 F8 33 0C 0C EF DF 36,
DC 10 FB 0B F7 14 16 F3,
06 DB EE FE CE 38 DD 5A,
12 FC A4 D4 15 0F 05 F3,
09 FB 25 ED D5 00 F7 27,
0F E6 1B 26 31 0B D6 DA,
E7 04 F5 E0 12 F3 FA 06,
0F F7 15 00 2A 15 11 0A,
16 18 DD DE 01 E5 20 CB,
11 31 02 FE F3 0F 0F D1,
DA D6 1C 33 E4 2A 17 E9,
0B F1 0B FC EE B7 09 39,
AF FE DB EB E5 D9 12 04,
F2 FE 03 E3 F0 E1 3C FB,
CA 1B F6 F5 FF BE 1F 09,
3C C3 FC D6 F7 FC 0D FF,
E4 22 1C C8 0A EB E4 00,
EF F2 F2 F0 24 D4 09 E9,
29 E7 2D 04 07 0D FB D2,
03 03 3C E9 0D E9 38 1F,
10 F8 FB E7 0A 0E 06 EA,
14 1C F8 FE 14 F1 F6 2C,
05 EE E1 E1 FD F2 11 09,
08 18 F9 F0 21 FB 2E 08,
EF 08 F2 14 F1 1F FC 08,
F0 09 00 E1 05 E5 F5 02,
F6 24 EC 1A 10 16 E3 17,
F8 E3 0C E5 00 FE 0C 19,
06 0F EF A5 16 D0 18 E8,
F9 FF 27 D3 26 04 F9 16,
F9 01 A4 1F FE 04 3D FB,
10 EA 00 D3 E6 04 40 FD,
02 FD 29 E5 06 00 E7 08,
E2 14 0F EA 39 FC B5 04,
10 0C D2 FA 29 D8 DF 20,
FE 21 F9 27 EC 0A C9 D3,
E9 04 CA EB 00 F4 D2 F9,
09 10 DA DE D8 DD EC 2B,
29 EB ED FD 0A E0 01 E6,
40 95 D0 15 14 DF EA FF,
14 F4 26 1C 11 06 CA DB,
F6 0E 03 E3 E3 1F F3 18,
0D FC 0F E5 10 DA F9 B2,
CC 1B DE EA EE 00 19 EC,
22 10 DD DC F3 F2 14 2B,
23 0C 23 FE F7 1A 08 3A,
FC F4 19 1A AF F6 F0 19,
17 E2 ED EC 03 14 1A 04,
FE 0E 2B 04 2D 0B D9 1B,
E7 0D E6 DB 03 12 02 41,
0A F0 19 27 1E 1D E5 09,
0A FF 03 CD D4 21 AE 0A,
DA 45 EA EE F8 0C E5 08,
0C 08 17 19 E3 3F E9 10,
FD 35 E1 EF EC 12 1C 08,
0B F3 E5 F2 13 F9 0A FC,
06 02 F2 04 FF E9 F7 EC,
14 25 19 0A 07 0E 00 05,
0F E8 1E F8 B5 F7 24 FE,
B7 E3 14 E6 13 07 CA 05,
F8 03 DE 49 F0 DD ED 47,
D2 E0 00 E7 E4 01 28 E9,
C5 02 14 11 1D FB 12 E6,
C5 DE FD 28 E9 C8 26 F2,
C7 19 EB F2 2E FE E5 08,
DF 12 D8 12 FC 06 18 19,
E9 EC E1 F4 F6 FF D4 08,
D7 F7 FD ED 20 E7 EE FB,
E3 E1 04 17 42 E9 F6 32,
17 24 F9 18 19 04 F9 BA,
F9 26 23 1E F6 F6 3A D1,
16 2A E5 F1 F6 F9 1F EC,
C5 D3 09 E4 FF F1 0C 0D,
E8 03 F0 2A 32 07 FB E7,
11 40 CA E6 FF E9 F4 FD,
F1 26 E2 1F E2 13 09 EC,
F9 F3 CB F2 02 E1 11 E4,
AB E8 FC CC FF 29 FB 02,
E7 D9 14 0C 07 E7 EA 3D,
07 1C 0A 25 15 1C 39 DC,
E3 2D F1 06 02 00 18 08,
F9 E0 E4 DE DB CC E1 F3,
FF E9 F9 12 0D EE 00 04,
3B F4 C5 F5 E1 F2 EE 26,
F2 05 19 E9 CB 0A FD FD,
23 01 05 DE EB FD 03 16,
FB 03 F8 D2 F2 F9 D5 E5,
00 44 2B D0 ED 51 FA 1A,
F0 31 EE FD F6 13 EC 17,
E1 28 12 2B F3 E4 29 0D,
06 06 FE C2 04 22 1F F9,
F6 E3 05 CF 18 C0 D8 18,
1A 3F FA FC 04 FE 08 F1,
0A EC DA 26 25 F8 02 F5,
08 DE C6 0F FE F8 F3 17,
E7 FA 01 13 FA DC F6 14,
BC B5 F8 F6 EE 16 F1 FB,
30 FA 29 1F 10 08 2F 26,
B6 01 BA 04 E9 F6 10 1B,
D7 DD 59 D7 0C 2B F4 E8,
E9 D4 23 24 08 10 FD 04,
29 35 00 EE E4 0D B8 43,
00 14 06 11 F7 01 1C 31,
37 FB 25 03 05 FA 0F E2,
3C 15 0D 68 0C D6 B3 18,
3D 15 D0 00 DB FD 28 DC,
15 FE E5 00 D8 FA 2B F7,
DA EF C6 D7 FE FE FA 47,
09 0B EA 0D E4 36 C2 F1,
DE 2F 04 CE 04 25 02 63,
2C D8 F1 05 EF 02 1A 1F,
0B CB 14 2D 06 26 FC BE,
27 18 1D B8 1F 0F 13 FA,
03 D4 E0 C1 C8 22 FB 37,
EE 06 FD 1C 02 23 E7 F0,
DA 11 CC D8 22 37 C9 D6,
25 33 36 CA 1E 0B 22 E8,
C0 21 0F 24 EC 28 F3 0B,
F8 C6 FC 08 FA F7 0E F9,
54 E4 22 C4 F0 07 2A 12,
01 0E 1A FB 01 2C EF 1C,
39 23 CB DB CD 02 D2 D3,
03 2F BB 1C 1E 19 00 40,
B7 34 D1 0E E3 1E C8 08,
31 17 FE CE FB FF EA 45,
28 F4 C6 03 27 00 25 16,
1F 3F F1 EB 0F D9 FD 07,
EF F7 13 22 05 ED 44 01,
FF E0 EE 0C FC D9 2B C6,
F2 F9 E1 23 D8 0D 01 41,
DF 02 F9 EE FD 20 44 00,
08 E8 FA E2 F9 31 E5 3F,
F2 5B 0E 0C 06 13 FA 64,
14 D5 1E F5 2A 45 21 F3,
05 12 D6 FA 08 F5 23 F2,
0A 0D E6 14 F7 C1 10 E9,
11 25 08 0E 1A 12 17 EC,
E9 E4 B1 06 12 0C 0E DF,
DF E1 18 EE E3 EE F1 FD,
0D E0 1B 44 F7 F2 F1 CF,
E3 CA DE EC 21 EC FA 0E,
0B 02 D0 F9 05 F0 F1 1D,
0A F0 0B E3 1B E9 EF DB,
DC 21 3E F9 1C E7 CE F0,
2C EC 18 E7 01 27 17 EC,
EE E4 F6 19 F5 37 EC FE,
30 10 F2 E7 D9 ED DD C0,
1A 21 03 ED F2 04 E7 1C,
DE 3F 41 32 FE 1F F0 0B,
04 C6 3C 17 17 20 07 E3,
EC FC F2 0C 1A 0C 11 ED,
E7 0D EB 07 C6 DF F4 B0,
C7 FC FD 17 FD D0 DF FF,
07 15 EB FD 0F F3 CB CE,
D9 24 14 2B 0B 1D 09 0A,
1A 0E FF FA 35 33 0F E9,
ED F1 D8 29 E2 01 0A F7,
DC 05 E6 20 F1 04 1B 11,
DB F7 24 F8 DF 0B FF DD,
06 15 E6 03 E5 ED DB 10,
DC 20 0B 2D FE FF D2 09,
F3 BF EE 21 01 F8 23 0E,
03 EA F7 DE 0A CF FA 0D,
FA ED DF F2 FC E2 F5 21,
0C D4 FF 21 F9 34 DE 03,
15 EE 06 F5 37 03 DB 05,
0E 0B 2E 0B DC CF 30 ED,
11 13 22 17 E7 0C D5 59,
00 F7 1F D4 F0 05 FA 06,
F7 15 E8 DD 2A 2B 14 2B,
DB 14 05 16 1C 0A 14 ED,
11 1B 07 1A F3 FF FE DA,
ED 24 FA F9 D8 19 2A 05,
30 EF D7 FD CE EE 3D BF,
0F 1E 0D 1C F5 12 DD 0F,
04 F0 F1 02 26 DC EC DA,
ED F9 F7 0D F9 1E FC 0B,
EF F2 2A 00 D0 0C 0B E5,
2F 07 F0 0D 29 E2 DB E3,
F5 E9 FC 18 E1 17 E4 18,
FB E8 F8 FD EC EA D6 E2,
0D F6 F9 00 FB D4 F4 22,
F1 E7 01 F1 F3 DB 12 E8,
05 F6 02 F1 E9 ED 0F 3E,
C9 1C 32 11 17 04 FB F5,
CD 17 07 D4 14 B2 FC C8,
FB F4 E9 F7 FB ED E7 3E,
F8 EB 0B 3C 32 27 B9 06,
F7 FF FF 02 FA E6 D5 0D,
E5 C3 E4 17 08 C0 F4 0F,
19 08 E3 E3 EB DE F4 F1,
1D 10 CF 2F 1F E2 3E 11,
FA 0F CE CB 01 1B DF E5,
EE C2 29 24 E4 EA 1E DD,
EF DE 3C E3 F0 F4 0B 26,
1D 20 37 F7 F7 FB E4 0D,
F5 34 DF ED 0E 15 F4 00,
FB E0 FD E6 F9 02 1A 02,
18 EA FE B0 EB DA 09 17,
24 16 D7 F5 22 35 25 D1,
2B C3 DC 03 E8 0A F6 DD,
DD F6 22 C9 D6 F1 19 10,
1B E3 ED 1A 01 D5 31 0A,
DA D7 05 A3 24 FD FA 0F,
F5 F6 0B 12 E2 11 BF D2,
3D F9 15 DC 0C 2C 28 0C,
4C F9 1C D9 E9 13 E5 B6,
1C FF 24 FB EB F9 F9 08,
ED AF F0 EC FC BF 0F E3,
11 FF 1E 0F E5 14 EC 3A,
F4 1A F2 EC 16 E0 22 F4,
0D 3C DD 0E D3 EE F6 0B,
D9 F1 C2 3C 01 2B FA 25,
05 23 C3 E5 F2 15 54 F3,
E1 08 FA 09 FA DF F5 D0,
2F 1B 20 F3 11 09 FB 14,
22 F0 00 F7 05 F4 3A 2B,
13 0C 0D B0 1D 24 EE 0E,
2D 21 C6 EE 35 EF 20 FA,
B8 FA EC 05 EE EF 1A 09,
DA D9 F4 CF 22 11 01 08,
01 A7 E1 15 FC 0E 26 DC,
07 EC 33 0F D1 13 03 E5,
E2 0E F2 D8 0F E4 C5 2F,
37 D4 0A 27 E7 11 04 F3,
FA 00 36 DF 0A 4F EC D3,
58 D6 D6 EF EA 11 D1 27,
3A 1E EF EA 15 C3 FA E6,
2B 20 9B 14 DE EC F0 F3,
FE EB 05 E4 BB FA 07 E1,
09 EA E5 F3 FC EC F1 FA,
00 00 74 1D 1C 0E E8 ED,
14 10 FC D6 45 0F DD 08,
23 FB FF 11 FD 03 03 DE,
0D 28 EF 1F 1F 09 02 D7,
D7 DB FA 18 22 EC F4 1F,
0F E0 CA E6 FA FC EC 0F,
C9 E2 F9 FB FF 09 0C 0D,
16 13 EB 07 F6 10 D3 FB,
F3 F8 D7 38 CC 04 CC 11,
0D 29 0D 06 F5 F2 29 EF,
ED 2A D7 00 DE 0C 21 17,
07 E7 0A E5 AC D4 1E 07,
F2 E5 39 9F 19 EC DA 29,
EB F4 C1 DE F1 E9 0F EA,
E1 F4 19 E4 F2 C0 00 F9,
15 D2 07 37 14 1F 2E 29,
2D F7 FE 21 EF E3 D7 FA,
EA DD 12 05 D1 0E C3 ED,
FC 03 1B 0B F3 0C 0A 57,
EA D5 0D 03 D4 D5 04 F5,
1E FC F9 F3 21 F0 C5 7F,
13 4C 02 F0 16 0A EB 04,
06 D0 E2 28 20 FA CD 12;