memory_initialization_radix=16;
memory_initialization_vector=
23 2D 0F 18 40 18 32 E0,
1E 08 2B F2 17 17 EB 0E,
39 09 09 3E 27 2C 08 3F,
FC 1B 1C 4E 19 48 04 D5,
1D 10 24 34 4A 02 2C EE,
19 0C 0E 27 2D 0E 1E 40,
1F 36 00 20 11 72 10 0B,
4E 6B 2C 22 2D 00 36 19,
12 10 01 11 FD 41 30 F8,
DD 1E 22 3A D6 16 31 1D,
38 FF 23 2A 21 21 07 3F,
04 22 13 03 24 D6 08 F1,
08 2E 26 48 0E 1F FF ED,
13 D7 3C 2B 04 DD FB DC,
DD 02 36 3D 2F 27 14 4A,
19 06 43 3C 08 05 14 EF,
D2 4E 4D 05 45 1A FC 31,
27 11 F5 FF 10 25 FF 26,
1F 3F E8 03 04 47 F8 D8,
26 ED 19 38 21 43 25 07,
22 09 FA E5 07 08 21 26,
08 DC 65 18 24 19 14 0B,
2C 15 26 2B 48 09 0D 18,
32 1C 36 F4 2E 28 35 04,
3C 20 37 28 03 21 0C 41,
0C 25 51 19 0B 20 F1 0C,
01 2D 10 26 1C 15 30 28,
FA 13 2D 31 4E 2B 61 13,
05 FC CE 39 2E 35 F6 35,
0E 1A 05 17 35 1C 2A EA,
F8 34 3C 55 39 2D 14 24,
54 FD 09 0E 1E EE BC 35,
21 25 E3 0F ED 10 FC FE,
DC 21 0A F1 1D 2B FF 0E,
23 FF 2C 04 1F 2A 02 1F,
27 21 07 20 3D 30 0B 08,
10 2A C8 F4 E1 1D 19 2E,
1E 56 1F FB 11 E8 20 08,
04 D9 EB 1B 17 59 E9 1E,
0B F5 56 0F 16 22 46 34,
32 13 11 18 13 2C 10 03,
EA 13 0B 26 FE 1F 32 22,
1A D3 42 2D 3C 09 29 1C,
1F 40 35 E5 3D 7A 0C 41,
41 0E 1F C6 15 00 2E 57,
14 0C 2C 14 E3 FE 0A 02,
F8 23 F5 25 33 E9 32 2C,
42 20 06 EF 12 12 E2 18,
05 13 17 55 2F 0B 13 14,
F9 F2 01 E3 4E 16 1D 2D,
FB 2D 22 FD F1 D3 32 06,
31 2D 11 32 38 3F 0D 4F,
38 32 0B 22 60 EB F7 27,
1B 2C 25 E9 0C 22 1B FE,
1F 04 FC 15 2C 07 28 09,
36 16 EB 33 20 38 0C 1C,
2A FC D5 3B 06 50 24 0A,
15 1F 41 FD F9 66 F1 40,
24 5B 24 32 37 F8 12 34,
11 2D 1A 1D 07 24 36 4E,
06 E7 21 0C 26 09 0C 01,
39 0C E4 59 60 2C F6 10,
D3 19 40 D4 F2 18 1F 11,
19 07 FE 26 42 0E 24 39,
27 17 E6 2A 06 34 1F 02,
F3 F4 31 38 3D F4 F1 2D,
E1 30 38 30 F6 FF EA 0F,
24 28 21 19 2D 08 04 0E,
2E 26 14 2A F9 F8 FC 11,
14 0F 35 1F 08 FB 35 1F,
07 1F 21 2F 31 06 4E 0D,
FA 03 2A F3 FB 47 E8 38,
02 3C 08 14 0A 02 27 10,
1D E8 E6 3E 1F 45 EC 00,
10 12 0A FA 45 19 F9 EC,
F8 F4 21 22 32 1F FA CC,
E6 1D 18 06 14 08 28 0E,
01 03 EC 0D 0D 05 14 3D,
0F 25 ED 01 E4 33 3A 1F,
0E 23 06 C2 F7 0F 00 55,
58 1A 02 FD 35 61 14 11,
0E 1F 0A ED FF 12 DC 36,
EE DF F2 3C 38 07 05 ED,
4F F8 14 49 35 FC 3F 0F,
3E 01 4E 24 F3 20 66 24,
5C 54 12 E1 E9 05 21 18,
1F 2D 19 1A 10 25 F3 E0,
41 05 E4 2C 69 13 3D 09,
EE 2F 15 44 F4 2A 23 E7,
2E EC 00 E9 2F F1 02 F3,
34 03 11 4C 0A 30 05 16,
34 05 04 2E 14 2B E9 FB,
FF F7 09 17 3D 31 FC 04,
42 BD FC 33 06 3A 1B 03,
0E 5F 2B 44 19 29 20 FB,
10 04 18 F8 3F 26 C5 31,
0F 24 DD E9 3F F7 3C 23,
11 FE 23 2B 1A 3D 0D 0B,
1B F9 2A 37 17 34 0C 23,
5D 3A 3A 3A 0D 18 2A 32,
36 1D 19 59 F5 DD 1D 27,
17 2E 18 40 E7 35 29 09,
02 22 2A EE DC F5 06 3A,
10 3B E6 F6 EE 23 DE 18,
4D D7 49 1C 1C 36 0D 0D,
EE 2A 12 3E 22 2C 05 FB,
11 58 50 13 04 E4 F8 00,
4A 32 07 26 F8 50 47 E8,
FB 2A E8 0C 36 31 3C DD,
66 00 24 EC 2F F6 FC E7,
37 03 05 28 45 22 F5 03,
21 3F 15 20 3F 21 17 22,
DA 10 0B 10 80 D3 20 22,
FE 10 14 36 2F EE F1 2E,
20 46 13 4D 06 3B 25 CD,
F6 27 D9 13 FE 32 FC 0A,
18 18 48 F9 1F 49 13 17,
37 E3 E9 ED 0B 21 2A 1D,
12 22 22 29 35 02 33 05,
19 17 1D 20 F8 16 23 32,
F1 03 58 ED 03 22 12 40,
0E 0C 33 E6 EF F8 DD 00,
0A 3B 18 18 06 0D 43 F4,
28 03 23 5E 32 16 3B F8,
10 2A 2C 1E 34 E7 31 29,
1C 20 13 28 3A 06 02 FB,
08 4D CD FC 02 10 39 10,
09 21 29 08 2C 18 0D F8,
0A 05 12 20 1C 29 02 33,
1A FC 44 45 10 1D 1F 1B,
07 45 22 1F B1 13 1E 3D,
1E 1D 35 5B F8 0E 03 FE,
0C D3 23 1D 33 E7 07 07,
05 1D 05 23 24 21 3F 1A,
35 C5 29 18 18 3A 43 EB,
1C EE 00 20 04 08 F9 00,
21 1B 3A 34 18 15 0D 29,
1E 1D E4 12 D0 DE 0F E5,
14 E2 05 36 0C ED 00 26,
1F 16 3A 1F 0E 30 2E EF,
09 2A 13 23 4D 34 FE D9,
09 FA 13 02 32 FF E9 F8,
16 45 48 0B F7 66 1C 00,
1A 2F 28 1E 5A FD F2 2C,
1A 3F 12 1F D8 E6 32 F1,
1B 27 F7 07 44 3B 16 D5,
1B 0C 06 2C 1E 42 D3 FE,
F1 06 21 4C 23 19 F2 02,
F8 F6 00 23 C4 E9 DA 28,
17 43 FA EB EA 5F F2 29,
0D F9 2A 25 E7 29 E8 41,
1C 06 31 38 09 F1 14 0A,
2E 11 2B FE 2D 1F 21 1F,
5B 11 24 42 F9 EB 29 E5,
1E 21 CB F8 F1 E7 E9 1A,
F4 0A F8 3C 04 0C FC 20,
3F 04 F3 01 46 2E 13 24,
EF 3A 11 20 E6 1D 30 15,
F9 20 F6 EC FE 2C 26 08,
29 0A 03 00 3B F6 F7 09,
D9 31 25 3D 14 01 01 2F,
21 2C 36 02 1D E5 05 11,
29 24 EA 25 1F 03 06 EA,
32 20 D1 2C 19 31 45 2C,
04 26 15 1F F4 FC 3C 14,
5B 26 27 49 EE 27 E9 37,
DD 2F F9 25 E5 10 09 23,
1E 55 0B 08 04 16 DD D8,
44 10 F5 08 E0 1B 43 0F,
18 2B 2A 30 1F 32 DB E5,
F8 F8 0E 0F 26 1A F7 26,
23 14 0A 0D 07 69 2B 1C,
18 1C F3 05 FB 5B 55 32,
00 05 13 0F 24 46 EA 2F,
00 09 13 B8 FC 33 33 07,
04 14 2C D8 00 3F 39 59,
F9 04 36 DC 3E 0E 6C 3C,
58 E4 41 12 12 0B 26 04,
2F F6 52 14 4E 18 19 2B,
F4 1D F0 E2 1D E0 FF 18,
FF 1D 35 01 43 DE 25 F7,
36 05 EF 42 28 20 04 27,
3E 00 0F 21 19 37 2E EB,
04 09 06 26 28 1E 0B FE,
30 16 3D 1C 50 18 F1 4C,
2A 0F 12 14 07 23 2C 02,
E7 01 DC 1A FD 3A BE 1E,
0B 1A 65 FA 15 30 1A FC,
07 43 06 44 54 42 3C F5,
2A D8 1F 01 11 2F F9 F5,
17 FB 31 66 2C 03 0A 06,
2A 13 21 30 47 01 FF 01,
DB 1F FC EB FF CF 26 2B,
40 45 1C 31 0D 32 2E 1C,
10 0C 15 0D F1 42 DE 36,
28 18 1A BB EE 31 F8 34,
0B 2A 21 1C 3A 40 40 06,
52 31 33 2F 31 1B 1A 1E,
F3 1D 02 42 31 38 61 11,
20 FB 27 38 09 27 15 2D,
22 D2 22 2E 43 DD 18 20,
EF 21 1F 09 5A F8 46 0E,
1D 35 4A DF 2E 4E 20 FD,
3F 1A 05 E0 36 33 F9 12,
09 10 02 2B 0C 0E 19 2C,
1C F1 09 F8 33 31 25 1A,
19 34 F4 12 FE E1 14 FF,
01 09 C6 19 D8 23 4C E3,
95 56 07 11 FD 45 0F F2,
4D 0D 00 3D 44 F9 20 FE,
40 14 0F 1B 01 40 F1 FC,
59 07 35 13 30 FF 08 E3,
21 FA 10 12 4C 32 FF 07,
0C 36 D8 13 0E 40 1D FE,
1B 31 FB BE 50 24 FA E2,
02 0B 26 FC 18 14 38 ED,
09 30 02 3C 33 01 24 D3,
38 CD 28 1B 40 02 00 33,
49 40 18 F7 EA FB 13 04,
F2 0B E3 B2 43 DB 2A 17,
CD 1B 14 F7 51 21 F3 18,
FA 00 0B 1F 22 14 47 3B,
47 1C FF 30 11 06 3C DC,
1A 52 F4 1A 1B 47 33 10,
12 23 0A 34 38 46 06 14,
30 0A 18 F0 29 0D E3 14,
F6 E7 23 3C 02 1C 1F B9,
01 EB 48 35 24 FE 06 31,
FE 30 16 A4 27 33 13 17,
48 FC FB DA F2 75 18 ED,
10 02 21 10 27 2C 1A FF,
09 EB EC 18 30 22 0E 04,
20 0F 13 2A 49 0F 0F 05,
D6 11 29 F8 4C 1C 2C 1E,
19 30 5E 0C 25 F5 27 CB,
F5 FC CC 1E 04 25 02 F0,
1C 3B 31 56 E1 35 30 18,
E4 38 1D F0 E9 0C 24 21,
2B 07 07 1F 2D 30 41 20,
35 4C 17 27 2F 14 64 DE,
30 27 FF 22 20 07 36 2E,
07 17 24 02 2A 25 29 18,
2B 3C F4 55 FC 1B 18 39,
4A 0C 26 F9 29 24 16 10,
1F F7 14 1E 0F E5 55 19,
24 E3 FF 2C FF 2A 2D 03,
1D F2 F7 FF 10 0F 47 14,
0E 0B 18 1F 38 1C DB 22,
E4 23 2E EE 4A 16 0C DB,
22 13 17 E7 18 0D 27 2A,
26 F9 20 05 23 08 23 FF,
FB 2F 06 1C 47 0D 3E F9,
10 EF FF 21 1D 1B E0 47,
34 04 FE FE 11 35 43 F9,
2C 28 10 12 1E 08 CF 2E,
F6 18 00 04 1C 25 C9 29,
3E F9 16 0F 1E 03 10 14,
33 E7 1C 03 52 38 27 E6,
14 E1 39 10 FD F2 16 35,
0F 2F EC 24 4D E3 01 FD,
1A 08 17 17 32 12 23 11,
1E F7 01 36 17 08 1F F9,
FE D5 34 20 07 11 EC 1B,
38 27 18 31 57 20 F8 1C,
FE 3B F0 35 2B 2E 0D E9,
53 1B 06 38 1E 35 20 C6,
1A 0B F6 22 F1 53 3A 01,
1A 36 1B 02 3A 15 0F FF,
28 27 FB 34 22 23 39 11,
F9 FC EE FA 11 23 0D 42,
27 F3 10 26 15 2A 0F ED,
02 0E 05 39 EB 44 2F 39,
2D FB 38 2F 2A 39 FF F1,
39 CC 0A B1 EF 18 0A 1C,
38 1C 15 FD 32 30 07 28,
2C 1B 08 0E 21 23 F4 0B,
01 4B 1B 25 06 2D 14 00,
EF 1B 39 48 4D 13 49 FA,
39 0B 00 15 25 F0 1D 1B,
0F EE 21 2F 15 1B 17 0C,
C7 F7 EA 11 3C 56 19 1B,
01 F7 E9 25 06 CF 16 15,
09 FA 20 41 20 06 26 FF,
CF 20 40 32 EA 0C 19 18,
2E 3C F9 47 14 2C 2B 0F,
04 10 F3 13 11 3A E2 34,
2A 12 05 CB 38 3B 1B 22,
15 07 36 1F 20 34 41 DA,
29 F3 F7 2B F6 2D 1C DB,
EE 24 E4 35 4F 6B 22 39,
1D FE 4F 07 38 3A 15 FD,
17 FD 0A 12 14 25 31 38,
FB 1A F9 20 42 0A 0E 17,
59 07 07 1D 14 1C 09 28,
09 1C 1E 30 4B 1B 14 00,
2F 1E 0F 20 20 00 05 3E,
29 1B 19 FC FF 4A 1A 49,
E0 22 28 10 23 2B 0C E4,
5A 27 17 26 1E EF 34 1F,
1A 47 29 2B FB 10 41 39,
10 00 EB 16 1E 3B 21 20,
0C 10 05 03 27 27 F7 11,
FF 15 44 43 15 0F 09 0E,
C7 4E 55 0E 0D E8 23 0E,
1B 0C 24 41 1F 35 46 21,
F4 33 FB 4B 2E 24 39 F1,
31 F7 EF 4E E4 50 0B D8,
E7 E7 33 04 28 27 2A 1A,
E5 34 FA 4B 52 05 FF FE,
21 33 34 E6 1F 0F 02 32,
37 06 24 1D 04 09 02 25,
1F 1D 15 12 44 3C F4 2E,
22 1D 1D 26 17 F2 F0 2D,
25 03 34 24 18 F3 F0 12,
03 05 E0 4F 16 11 36 06,
0B 19 66 FC 12 11 38 2B,
29 19 0A 20 07 F6 FA 12,
48 4B F2 1C 20 B8 D5 E0,
1F F1 1A 32 0A EF 1C DC,
3F 46 14 17 02 3B 0A 20,
0C 00 F1 E4 DF 6C 45 FE,
4F 44 2A 60 02 0C CA F5,
29 00 43 2B F6 FF 07 09,
E3 1F 20 CE 38 32 5A 20,
28 12 EC 07 E8 E0 16 29,
36 18 35 F1 0D B4 37 1F,
37 3D 28 33 36 15 33 3B,
34 1C 0B 07 20 10 65 46,
2F 1B 16 24 23 F8 44 F1,
12 3C 6A E2 1C 42 D7 E1,
28 30 00 13 44 0E 46 21,
00 F4 0E 32 32 2E 2E E5,
FF 07 01 4C 09 23 13 EE,
34 FA 33 3A 09 41 3E 11,
F5 F8 1C 30 06 0F 1A 0A,
3F 21 2B E9 20 45 42 F0,
2F 0E 2F 19 4C EC 3D 25,
24 E4 2C 11 02 2B 2C FB,
19 24 24 47 FB 1F 0D D4,
0F FE 24 0C 60 2B 2A 08,
28 18 1B 06 21 12 09 06,
52 F6 27 3F 17 0E 3F 60,
42 E7 D3 39 04 33 14 F1,
25 36 1A 06 0B 46 04 11,
07 05 2B 2F 2A 2D 24 1B,
24 17 F2 25 0E 13 15 02,
F3 11 3A 48 FE 24 06 F4,
4A 02 39 04 3F FE 27 22,
13 1D 0B 35 0A 01 14 25,
43 1A E5 CD 12 EC 1F F9,
23 FC 0D 06 1F 57 30 28,
28 2C 30 10 D1 0D E6 23,
39 0A 03 3A FA 35 2D 1B,
5A 10 F1 FC 16 0B 17 4E,
12 37 15 EC 2B F4 CE 14,
0F 22 00 45 22 07 05 0F,
F3 F3 2B C1 0F 19 41 15,
45 0F 25 E4 33 61 E9 12,
45 F2 FF 2B 41 5B 34 F9,
AF 12 08 0E 10 0B 21 08,
D8 C8 14 33 1C 2E 2C 09,
39 19 22 DB 2F 11 1D 02,
1C FF F9 31 04 2E 11 01,
06 11 38 07 13 FF 02 0E,
12 FF DB 08 4E 4C 1D 0B,
FD 25 EA 40 E9 10 38 1C,
1A F1 0A 0D 27 11 06 05,
01 44 2A 1E 1C 05 5D 06,
17 04 07 00 0E 1E 0D D0,
10 F4 D7 2C 43 18 29 23,
28 40 2A 0D 23 47 19 E1,
0D 42 1D 03 2D 18 06 4A,
22 3C 22 2D 31 1F 2F 1B,
40 16 1A 25 3F 0E 26 F7,
6F 53 D2 2E 0C 42 43 39,
3C DD EB F8 21 2B FF 13,
0B FB 02 24 2D 36 03 0D,
25 C6 2B 4E 4B 1C 2D 46,
20 0D 06 14 3A 0E 1A 3D,
45 39 1E 09 23 E9 F0 18,
EE 2F E7 28 4A 00 2B 44,
38 EF 20 26 2F 1C 25 FF,
25 F9 1B 01 F0 1A 10 F4,
63 46 08 2B 4B EE 3B 24,
49 F4 38 2B E5 26 E4 F6,
4D 31 EF 07 0A 03 6C 20,
D7 3C 3E 4E 05 01 20 FA,
30 0F 03 29 3C 22 ED 2A,
34 F5 25 11 21 F2 46 07,
11 21 09 23 2B 0E 11 F1,
EC 45 E4 D3 2A 11 36 01,
16 00 05 FB 20 17 2D 28,
DE 09 38 2F 13 05 07 FE,
0B 33 3A 45 DF 40 1A F3,
51 3B 1F 39 2C 1F 2C FD,
11 3D 4B CB 3B F9 47 FA,
F1 3B 23 49 30 04 1B 2B,
55 F0 26 26 38 01 14 11,
EF 14 43 32 67 11 10 1F,
20 18 14 30 22 00 18 00,
3C 09 FB 33 11 10 1D 0B,
00 E6 50 00 FD FB F7 11,
FD 01 0C 4B 29 21 14 56,
29 58 45 3D DF 03 37 1E,
2E 38 09 23 25 0B EE 40,
F2 21 DA EC F7 4F EA 33,
D0 1C 3F 03 2B FF 44 00,
05 3D 47 EC 24 E3 3F 18,
1A ED 5F 13 38 38 14 05,
35 31 FA 10 11 30 1D 0D,
0F 2E F3 17 1D FC FA F2,
28 E6 0F 1F 19 37 3C 1E,
27 19 0D 0C 1B E0 07 FC,
30 F1 FC DB 3D 03 3E 4F,
31 32 08 ED F7 70 4D 1F,
00 2A 48 78 16 1A 21 1C,
2E 23 EB 19 2E E0 1F 26,
22 F1 3A 10 3B 3A EA 3A,
20 15 4B 04 21 14 00 3F,
0C 38 23 12 F0 30 F0 20,
42 45 0A 1C 3F 0F 3F 24,
FE 27 16 3C 35 49 04 1B,
3A CF 19 18 33 16 0A 07,
48 34 02 EB 1A 12 17 F9,
F0 0D 12 4A EF 02 29 40,
48 07 2B 17 08 31 1E 11,
1F 22 E5 1E 51 04 25 1B,
29 0E 13 34 00 F6 03 09,
21 41 20 3F 0A 27 1D F8,
53 FC E2 F1 E0 FC F7 1F,
1A 3E 20 0B 43 0C 01 1D,
22 FC F8 21 43 5F 4B 30,
27 FB FC 12 2E FB 13 10,
0D 2D D5 F1 44 FD 24 CE,
23 2E 10 19 10 0A 35 0D,
0F 34 FC 25 F0 FD 01 3C,
3A 1C 18 1F 43 F1 4B 0C,
04 F3 07 10 5D 17 26 13,
5B 0A E0 2F 0E 23 FC F2,
16 E0 21 1D 1E FC DD 4B,
02 F4 F0 10 2C F5 31 51,
07 45 22 3F 00 3E 06 1B,
DE 30 3E 04 13 F8 16 ED,
06 F0 E0 2C 2E 40 25 D9,
1F 12 FE C5 1E 4C F1 37,
E6 2E 3B 1C CB 2B FE EF,
44 21 09 1F 1E 0D 24 07,
22 10 05 22 2A 18 F4 29,
F5 DD 28 17 2B 1D F1 18,
1A 2F 2F 3A E5 16 F7 08,
FF 20 0B 04 24 00 39 3E,
4A F7 39 D3 DE 20 32 2F,
F5 27 5E 2A F6 23 38 1A,
2C DE 3B 4E 34 39 2D F2,
23 F6 07 3B 47 3C 00 29,
E7 E8 08 39 2B 00 0E 05,
17 21 08 4A F7 2E 13 EC,
11 2B 14 D1 27 3F 5B 13,
F5 15 27 3C 05 3D 35 0B,
47 3A 0D 2C 2A 28 43 1F,
38 14 01 27 FF 17 22 38,
2D 1B FC 27 4E 08 0A 00,
56 E8 2D FC 0D EB 06 1D,
F4 4A 02 18 FA 0C ED 28,
3C 2B 2A 30 EA 11 02 EE,
F7 1B 46 1F 0C 1B 12 DA,
26 F4 17 13 F5 1C 0A 24,
43 11 EB 23 50 22 00 2E,
24 F2 1B F8 46 57 2E 05,
59 F6 09 12 0A 71 14 0F,
39 E4 33 34 1D E2 0E 27,
ED 57 29 31 50 2B 14 1F,
41 2F 64 03 08 FF 19 4C,
CA 30 E6 2A 53 39 1B F5,
18 16 3F 16 25 0F 58 0C,
37 26 C9 1E 23 45 3F FC,
0E EE 24 1B 18 F9 21 58,
06 18 4F 54 21 41 CE 0B,
0F 08 2D FC 2F F7 0C 3C,
DF FB F5 0D 2A 11 F1 23,
30 0D 22 1D 10 32 20 14,
35 DD 21 49 06 3E EB E7,
DF 08 22 59 E9 FF CB 16,
D3 28 42 01 17 26 17 51,
FB 15 01 2C 1D D6 E2 CF,
E8 E8 3D 33 E4 F6 1E F1,
F5 FA 33 E1 2F FB 1D 50,
43 FB 42 CE 32 0D 2A 22,
F8 1C 2A 04 2C 11 E7 1E,
31 E2 19 07 4D 39 F6 FD,
30 1F F6 25 11 37 13 23,
06 40 24 03 37 31 31 28,
F8 12 37 4F 01 E7 4C 2C,
E2 2E F5 20 2D 0B 45 2E,
FE 0F 1D 33 0D ED 55 F5,
E6 20 3D C8 0E B4 04 23,
2D 11 0A 2E 23 56 1C F1,
FF 1E 12 24 0B 16 FE 1B,
06 08 25 33 55 5E 0A 12,
2D F6 18 23 24 12 E2 2F,
28 F3 F9 3C 4B 3F FF 23,
FD 28 F7 1B 2A 1D F9 42,
EE F0 44 1C 26 24 00 22,
F3 2D 17 23 61 14 04 F9,
2E 31 20 12 34 EE 07 F8,
10 E4 28 45 F3 68 40 22,
11 0D E4 23 48 2C F8 DF,
48 0B 08 37 0B 20 04 38,
E2 51 20 2C D1 F0 4C 10,
4C 12 1B 39 39 0D 15 1C,
F5 6A 2B 13 10 03 15 2D,
21 CE 2A 07 44 FA 3A 28,
EC 18 E1 23 FB DA F9 DD,
33 40 09 31 37 03 D9 26,
05 08 E8 08 18 3B 30 15,
EA 1C 0F 11 26 01 5E EC,
4A 1F F6 EA CC 49 15 E9,
F3 FF D2 FE 09 16 2C F0,
35 02 F5 0A 3F 2B E1 0B,
27 CA 3E 0D 02 33 27 1C,
11 01 54 F3 1D 21 F0 1B,
50 2A 36 1C ED 33 1A 0B,
08 1F 17 40 3D 38 2E 07,
17 41 37 DF 11 58 13 09,
0B 39 22 E4 F4 06 28 1F,
22 17 48 03 F7 49 03 33,
33 F5 4D 14 46 2E F7 30,
31 5F 23 6E 12 12 0A 13,
23 C3 06 10 01 0F 09 1C,
E1 4B FD FF 0C 12 37 EA,
0F 0A 2B 4A F0 F7 DE 15,
1C 3A E4 05 3F 08 30 1B,
EF 47 25 44 63 01 F9 22,
3A 0D 01 22 32 19 20 0B,
15 47 02 39 0C 27 15 24,
38 3F 16 10 F4 27 3D F9,
04 FB 0D 12 0E 18 11 09,
10 05 2A E4 12 14 02 0C,
4C 30 2B E4 05 FB FB 21,
B6 DB 13 F6 33 29 39 18,
36 33 11 06 30 28 04 FE,
F0 FE 37 15 22 43 D5 E7,
0E FF 00 32 30 16 FD 1A,
4E D1 F0 17 0C 43 EA 29,
FD FA 29 DF 0F FB 4C 01,
35 2A F0 4B 0E 64 F1 1D,
60 13 1D F6 42 0C 18 11,
3F 21 2E 45 08 2C 1F FF,
1C FA 2D FF 2B 0A 11 16,
01 0E 03 06 28 16 18 FB,
3F E2 11 29 24 34 1E F8,
0E 75 0B FD 0B FD 04 0F,
D1 DB 04 43 4B 13 1A 33,
12 60 1A 07 3D 05 45 E2,
FB E9 2D 29 10 57 40 EE,
14 18 4F F8 F4 E6 66 EF,
12 2C 07 F5 32 68 11 36,
43 FB 2F 35 10 36 19 FF,
1E F6 25 1F F0 28 D8 45,
DA 23 2D 02 1E 3F 03 12,
09 27 D9 14 06 0F 10 30,
3C 10 1E 54 22 28 22 3C,
FA 0B 2A 08 EF D7 03 25,
2E 23 2F 0B 26 11 25 30,
FA F6 2E 06 0D 02 3D 22,
21 E9 D9 FA DD 22 15 1C,
05 12 0A EE BA 29 3D 09,
FF 34 50 0C FD 15 F7 11,
0D FD 18 2A 16 21 05 D0,
48 F4 37 18 0B F1 FE 38,
FE 26 13 2E 1F 45 CE 22,
0C 28 0A FA 2A 57 48 0C,
DC 19 39 21 54 30 03 1F,
03 32 1C 02 53 E4 30 E1,
23 29 0B DF F2 04 10 3D,
E5 DD 2F 1A 34 3A F0 0D,
FC FF F4 D3 37 63 2B 20,
EB 02 EC 54 35 2C 3D F3,
38 22 3E 0F 25 02 FD 39,
16 10 E2 1B ED CE 12 0D,
20 08 18 44 24 19 F2 F0,
ED 4A 00 1D 15 F1 25 E3,
43 24 22 22 B8 2C 36 26,
FE 16 E1 F0 2D 3A FA EB,
2D 15 0E 2D FD 42 03 EC,
FC EA F8 29 7F FE F5 E4,
2E 0A FE FB 10 1F 1F 02,
13 2B 14 42 03 5B 20 31,
4D 27 12 FD 32 D2 FD 47,
0A 32 02 03 04 0A 01 1B,
65 24 F0 2A 3C F3 22 0B,
E9 14 E1 11 FC 10 D4 15,
E8 13 10 05 23 23 1C 42,
1B 04 F8 28 06 29 30 11,
20 47 1E 47 11 EB 0B FD,
4F 2A 1A 42 27 17 2A 3F,
FA DE 22 3D 2E D0 31 20,
39 43 30 E0 27 1E 18 2C,
35 1A 25 3B 17 1F 2F FE,
FB 30 2C 2F FF 16 04 EE,
DC 07 E0 2B FC FF 28 31,
04 FE 2E 28 30 D9 23 25,
07 38 0A 15 39 58 37 12,
31 30 31 47 2E 1F 26 FF,
08 E0 0F F2 1E 16 42 3F,
00 E5 30 F3 2B BC 10 12,
34 F5 64 2D 24 F6 64 FB,
07 1E 0B 1B 46 35 15 1C,
20 4D 02 2B 44 EE 15 0B,
27 28 D1 38 F3 F8 46 3D,
EB 3C 08 31 1E 1A 1A 10,
26 0F 5E 11 06 1F E9 23,
F3 20 F6 27 FD 09 4A 01,
3B 03 35 4F D9 FD 28 56,
30 DD 1A 0F 26 EF 45 61,
1C 01 38 21 3D 34 1B 24,
DC EA 12 19 11 36 14 14,
12 EC 36 30 F5 F1 36 E6,
F6 B2 01 ED 4C 4B 19 01,
16 10 25 DC 11 EF 3B 52,
2A 0F F8 13 FE 02 DA 10,
51 F8 28 EF 26 1D 3B 0E,
E3 3B 14 18 2B 3A E4 35,
17 1A DC 08 2A 30 0C 07,
44 14 1F 4C 45 11 3D 2C,
16 57 19 3B D6 0E 21 28,
E9 2C 29 03 05 19 09 14,
F2 0E 1D 26 2B 29 01 43,
0E 17 0D F8 1D 14 10 F1,
FC 25 31 28 2D 37 00 2C,
FA EF 3C 08 F9 C2 3B 13,
41 16 0D 22 FE 02 C9 54,
F1 1C 2F 45 2E 67 18 0D,
1F 14 0A 05 3B 16 26 4A,
15 F0 3A E8 1F E7 14 EB,
DC 10 3F D9 F4 0B F0 EB,
06 0C FB 17 FC 34 08 15,
08 FF 1B 21 29 2A 16 EC,
3B F2 23 D5 23 47 E0 38,
20 07 D1 10 CA 48 1B 13,
0A 32 F0 11 14 0F 51 03,
13 04 F2 1A F8 30 FE 33,
F2 2B 2D F2 00 35 16 E0,
56 FB 45 5A 25 06 FE 1D,
E4 0E 15 15 F5 2E 22 56,
02 0D 39 C9 1C 19 FD 31,
CF 04 08 FA 09 F2 09 35,
1A 1B FA 37 14 1B 28 19,
25 0D 09 2D E0 2A 2E 0C,
4C 10 3E 4D DA 0A CF 01,
DE CE 28 D4 F3 F8 1B 41,
24 17 26 30 34 49 10 20,
40 12 1F 44 FA 47 37 0B,
24 4D 44 42 F8 3B 42 2A,
1E 1F 23 3F F6 E3 02 1D,
1E 26 F9 07 F1 DF F9 03,
50 3C 41 38 04 05 ED 2D,
12 EA 0C FF 2C 49 F8 DE,
15 17 35 2E 1D F8 B2 22,
25 E7 42 1A 04 1A FC F1,
33 2C 36 03 06 0D 0F 10,
26 F8 05 E1 F8 3F 05 FD,
CE 09 07 28 41 32 09 1E,
3F 0C 24 0A E3 30 57 FA,
43 F9 2C 0C 16 15 EA 28,
43 2D 58 F2 14 31 E8 FE,
D0 27 27 F8 18 43 33 5F,
19 EE EA 16 2D 31 F3 1C,
F5 13 02 14 1B 57 2A DB,
F4 FB 31 4E 14 25 34 14,
F9 40 11 22 26 27 6E F0,
D1 16 FC DF 4A E7 15 DC,
DD FC 31 19 F7 4E 16 D1,
F3 4A FF 1C 1C 17 06 F7,
1C FD 19 15 57 F4 F8 1F,
54 25 D2 10 03 F2 39 20,
3E 3A 30 01 10 00 F2 28,
1F 2E 12 45 09 3B 01 20,
DE F3 EF 0F 1A 21 21 DF,
25 DA 25 F2 11 29 21 53,
07 29 EE 3D F7 13 29 E6,
3A 2B 31 FA FA 2A 0A 2B,
5B F4 26 F9 4F 0F D5 62,
09 6E 0C 04 F5 11 0D 19,
10 E8 29 02 CE 17 EE 29,
2B E0 E8 2E DD 05 46 76,
1E 24 09 F0 10 02 04 10,
44 13 1A 28 31 F0 EF 09,
29 F4 48 2D 0F 02 11 23,
2C EC 3A 69 17 E9 FA FA,
17 14 F8 10 32 2C F3 E6,
1C 2D FD 0C 13 06 3D 21,
16 3D FC 45 3F 3A 12 02,
DB 0D E6 5A 2E 10 1C 2B,
21 0F 41 F0 3C 5F 0B F6,
3B DF DC 08 E8 25 16 0A,
FB D5 25 5E 1E 00 EA 5D,
2E 22 04 16 32 FB 16 20,
1C 1F 33 FB 31 06 BC F6,
0E 30 09 34 19 3D F0 FF,
39 3F 17 F3 34 E1 72 20,
01 04 F6 21 4D 56 21 FD,
20 45 1C 15 28 2C 09 5F,
DB 04 14 48 08 08 0A 18,
1F 11 23 F2 F9 11 C3 32,
F4 19 38 D8 03 08 21 05,
13 25 09 06 05 FA 32 21,
25 18 10 01 3E 14 04 FC,
0E 0F EE 28 5D D8 0F 24,
16 06 36 F9 11 2F 05 16,
10 09 23 F3 DF F9 35 EA,
3D 1E D3 F9 21 1C 3F 27,
FC E6 13 05 F0 C8 F2 15,
35 20 30 42 11 1D 38 17,
FF 17 3B 12 E9 F3 FD 03,
18 42 30 41 EE 11 C8 FA,
1D E6 02 0B FE 45 07 3A,
16 E0 2E 23 ED 11 26 07,
1B D9 39 2E D4 EC F3 14,
30 1C 23 2A 2A 42 12 19,
1B EC 3D 26 18 07 10 22,
FC 30 16 D9 2C 2A FD 27,
36 25 34 5B 1B 00 04 08,
D9 ED F9 12 27 13 FD 20,
F3 19 12 FB 4D 24 F8 E3,
F3 74 17 19 11 27 1B 39,
D6 D7 37 1A 6A 1A 21 58,
BC FF 0B 32 D8 F3 33 04,
48 23 2A 13 2A 40 E2 0B,
04 0B CF 09 39 F2 0A 19,
05 34 2A 1C 0D 07 F5 00,
2C 29 29 0D 25 37 0F 05,
1D 1F 06 49 16 C9 4B 00,
06 47 E8 09 09 23 1E 3E,
04 1F 39 1F 14 09 32 ED,
25 B8 13 2F 18 14 1B 2E,
18 FF 11 CB 27 17 0E F4,
3E 03 03 F2 E2 08 1B F9,
FF 0B 12 24 18 2A 48 F3,
09 FF 16 E4 D1 FC 05 57,
0C 45 1A 18 09 02 D3 30,
44 23 04 26 FD EA 22 08,
D9 F5 2F DE 01 0C 09 2E,
04 0B F9 FF 13 12 50 18,
3B 0D 12 02 4B 16 4F 27,
D1 25 03 FF FF 32 FB 44,
23 60 F4 51 25 D5 F6 F9,
0B 35 3B 1A 03 06 1B D5,
1D F8 16 17 2A 1D F7 E3,
32 23 2C F5 2E 2C DF FE,
2B 00 22 36 33 03 03 09,
EC 31 B4 2C D0 37 68 28,
EB 36 07 40 1E F7 31 FC,
47 07 F8 D2 D7 35 23 3D,
F8 E5 01 25 E2 1B EA 28,
1C 24 44 64 38 C2 0D 12,
25 F5 52 13 DE CF 1E 25,
11 28 0A 43 2F 28 12 1E,
00 EE 21 0F 44 EF 31 47,
FF 33 09 40 39 07 E8 10,
32 27 F3 15 19 FC 1A 1A,
06 45 1D FC FA 0A 31 49,
17 12 12 02 FA F6 31 EA,
0F 12 08 24 37 54 1C 58,
29 11 10 DF 39 5C 48 06,
26 20 07 E4 2E 10 F6 E8,
19 45 42 F8 F9 EA 0F 2A,
2E F6 3F EB 1A 20 09 26,
25 F9 1A EF 2F 42 29 EA,
DE 51 18 34 F4 1D 01 1C,
1D 26 E7 1C 08 12 07 19,
FC EC F4 10 19 14 DC 1A,
E7 1D 0D ED 10 DB 0F 44,
49 34 20 26 F4 E9 3C 44,
1A 72 EA F2 34 2B EC 0B,
17 43 1F 22 52 EC 24 04,
37 30 0F 17 12 32 E7 42,
10 0E 2C F5 33 12 5A 48,
2F F1 18 3D 26 1B 3D F3,
14 1C 0E 18 38 10 DC 09,
24 1D EB 0B 60 2C 26 48,
1E F5 13 16 2F 27 25 0F,
D3 14 31 EC FD 08 22 3A,
4C F7 F6 26 15 23 1C F6,
15 1E 73 22 0E 50 25 E7,
25 33 36 FF 42 02 11 0F,
D0 2D EE FC 06 22 18 43,
22 FF F2 33 22 06 25 0E,
00 2F 50 0C 46 2E 1F 2F,
3B 39 DB 10 F1 D5 5B E8,
34 13 F4 02 29 1A 15 FD,
00 20 2D 21 05 F9 1F 13,
06 32 20 21 26 23 F7 1C,
24 2D 2B 2C F9 24 1C E6,
0E FE 39 5C F8 28 D6 33,
19 F3 39 F0 F1 FF C4 28,
42 3D 4D 2F 33 3C 1F 30,
FD 14 3F 41 2F 37 D7 EE,
FA FF 14 1C E9 E9 2C 2F,
F6 FD 21 0D 17 12 45 FE,
17 22 04 16 19 18 05 26,
66 44 08 FA 16 35 E0 01,
53 0B 06 2B F8 D3 F9 25,
11 F8 F6 0E 3C 22 FF 0A,
48 30 2F 3B 24 F5 47 10,
05 29 53 29 04 06 6C 1D,
57 50 31 F2 08 40 2D 1A,
03 D3 FB FE 26 ED 3E 1E,
F7 10 10 10 F1 34 1A 16,
2E E7 44 40 2F 03 01 22,
2D 0B 1D 16 E8 ED 34 EF,
F7 17 E7 FA 04 1C 32 16,
0D 1A FC 34 28 FF 32 08,
1E 39 10 D0 16 1A 43 13,
3A 3E 46 02 C7 1C 27 FC,
3A 00 EC 0A 16 26 46 17,
FE DD 38 33 47 2B F5 33,
2A D8 30 08 F7 07 EF E2,
DE F1 EF 21 1F 3E 2B 4F,
35 0F 1F 19 E8 1A 17 30,
3D FE 08 3C 28 03 0A 1D,
03 2E 1C FF 28 FF 54 38,
27 04 1F 6C 18 55 1D 10,
15 CD 09 2D 0A F3 1A 18,
32 1E 37 29 FE F5 17 19,
49 F2 34 E7 01 02 E1 55,
3B 20 06 32 12 F2 F2 FF,
1E 33 F5 53 36 EE ED 04,
16 DE 10 0B F1 FD 34 00,
04 1C 3F 08 FC 25 0C 39,
1A 0D 36 5D 0E 12 1A F4,
1C FC 31 4C 1D FC 2C 44,
0A FB 38 56 29 1C E0 FF,
30 18 1A 0C 30 1A 4B 11,
D5 E1 EF D6 08 27 1D 1F,
47 24 47 10 2D 30 40 0C,
17 FA D1 3C 44 4A 2C 39,
19 23 34 18 1B 23 F1 4F,
11 18 0C D6 45 00 23 0B,
43 FD 23 3E 27 10 EB F6,
3A E7 2A 3C 20 31 3C E6,
FB 2D 51 10 17 15 27 39,
31 E9 17 17 22 3A 01 43,
E6 0B CB 3F 19 42 32 54,
19 FE F5 E8 34 2B 20 1B,
11 E5 19 42 24 13 11 1E,
FB 21 24 1E 28 1A 1C 1F,
F8 20 0F F9 17 20 04 0D,
32 F3 0F 11 00 14 21 1E,
F9 0E 4B E9 27 12 27 E0,
11 0A 30 71 F3 04 24 25,
2F E8 34 F2 D1 1C E2 1A,
1B 27 2D F6 24 58 29 40,
EF 45 26 22 E9 3D 29 E8,
2B 17 03 D8 02 4E F2 00,
23 03 F8 CE 4B 18 06 23,
36 28 04 2B 18 16 24 E6,
17 3D 04 19 35 E3 28 D0,
2E FC 21 37 1D 39 27 29,
10 16 EF 32 CA 01 EC 08,
1B 1D FB 0A 1F 34 EF 14,
FC 08 EF 48 2A 0A 09 3A,
1C 13 CB 11 16 0C 31 F2,
28 00 3E 2D 1F 25 12 0E,
12 16 4E 2E 0E 11 2C 09,
45 11 FA 39 F3 3D 04 10,
0C 21 17 00 44 E9 0B 2A,
11 1E E9 4B 25 07 F6 27,
0B FD FC DA 2E F7 12 28,
03 2D 0B F0 F3 18 06 1A,
22 18 25 1E 0B 00 0F 14,
DE 07 FE 1B 4D 0D 13 29,
70 03 F1 E6 19 25 2A D7,
35 11 48 40 1F 21 21 2A,
F6 EC 41 1E 0B F2 10 57,
25 1D 1E FC E1 ED 06 32,
2D F4 2E E7 16 01 12 2F,
AD 49 24 18 36 1D EE E0,
EF 43 FE FD 50 22 F9 15,
0D FB F0 1B 20 25 2D 31,
EC 14 51 FB 0A D7 41 F7,
12 13 52 1E E0 1B 4C 04,
F5 51 15 38 F4 F9 E5 37,
1A 1B 23 28 0D 31 DA FF,
F2 20 1F 0A 26 12 0F 04,
2B 26 02 FD 05 E9 1C 1E,
E7 0B FE 12 25 31 F7 EC,
10 12 3E 17 E4 0A 3C F5,
06 0D F6 01 0A F7 08 5D,
47 E5 F8 F4 13 27 24 0A,
1E 42 20 E7 43 03 F8 12,
EC 4B E6 C3 18 32 31 25,
43 FE 1B 0D E2 09 01 D9,
22 1B 64 36 1F FD 20 F7,
DA F3 4E 09 35 13 22 0F,
E8 2F 27 33 0E 26 25 F5,
04 39 0F 23 2E 4E 1A 2A,
02 07 1B 1E F9 30 29 29,
FA 3C D7 3D 09 59 52 28,
EB 3F 4F 0E 0B 1B 0F EE,
4D 41 40 3B 02 16 1D 18,
32 3C 39 62 E9 0F 2D 44,
2B FE 19 3A 21 18 33 16,
36 FE FB 0C 6C 1B 2F 2E,
10 FF 11 4F 36 2A 22 5A,
F3 48 33 0F 02 00 3F 19,
05 E5 52 11 17 1C ED 07,
26 0E 56 33 1D 0A 2D 4F,
F2 14 2D 39 17 09 0E 13,
23 45 0C 1B 49 37 E9 24,
26 38 1E 5F 3D 15 19 05,
24 0B FA 52 42 D1 24 FC,
25 05 20 0E F9 14 2B 0E,
19 0A 2F 20 EB 25 05 16,
D3 48 1F F9 FB E7 23 FE,
E4 F7 51 2B 0C 28 4C ED,
39 00 F8 FE FC ED 14 2A,
F8 14 22 38 29 29 1D 30,
16 B2 28 11 1B 02 0C 37,
F3 2C D6 F0 4B F4 FE F7,
0F 11 FF 31 12 FF 1C 20,
06 0D 0B F5 21 0A 09 0E,
3F 1F 2A 2C 20 11 FC 20,
27 16 F2 4F 3F 1F 1C FA,
12 13 F3 2C 01 1D 08 3B,
15 29 20 3F 0A 31 0A 11,
1F 18 27 07 2A 20 EE 10,
E3 E4 10 36 1C FE 3B 2D,
28 E3 11 01 05 33 E4 E5,
06 D7 09 F7 3D 2A 0C 04,
19 35 3A 34 F4 55 75 FE,
52 2F 18 27 54 E4 2F 34,
ED 34 20 36 0C 2A FE 4C,
01 EC F4 20 39 21 EB 24,
01 0A 1C FF 16 1E 47 09,
EA 16 4E 16 09 2E 06 04,
FE 38 58 24 0D 4C 03 E2,
49 1A 0D 0D FE 32 06 47,
5D E9 FA 11 F7 EA 12 16,
4E 20 2B 19 1B 4C 27 EB,
05 17 4D B6 1C F6 F7 27,
41 FF 0B 3D 52 F0 22 D5,
0A 43 EA 13 0E 11 34 F0,
30 EF 41 E2 EF 34 DE 1C,
FB 00 00 E9 13 5F 23 E5,
EA 13 EC E2 34 47 25 17,
03 0C F9 10 14 02 0C F0,
39 39 0A 12 11 17 0A F4,
2C E9 48 20 46 F3 21 02,
CA 0E 0E EC FD 23 02 11,
ED EE 0F 66 36 F7 08 29,
21 FE FF 0E ED 17 22 0B,
03 30 27 F2 EE 30 06 0F,
F7 38 36 D8 F4 45 E8 F4,
51 10 28 FA FF EF 28 E6,
16 2F 08 FE FB 21 11 43,
46 13 F0 30 0A 04 12 17,
11 3A 23 21 28 50 09 FF,
C2 23 2A 48 22 0A F3 F5,
15 35 C6 18 08 14 14 60,
29 F6 54 FA 3A 37 F6 FD,
EE 31 19 59 41 2B 03 10,
29 29 08 40 09 DC 17 4F,
1A 1F E6 07 D6 1D 2D 14,
06 C9 16 21 33 28 0C 0C,
1C 27 2A 18 38 F0 0A 31,
4D 11 26 25 06 33 1E 17,
1B 0D 11 DB 00 E4 18 EC,
43 3C FB DB 33 14 15 E9,
32 37 38 FB D7 F8 EA 3A,
2A 0E 35 FF 18 41 44 EF,
2C 1E 2B 23 FE F2 3C 38,
23 3C D4 1A 02 3B 1D 10,
30 E9 E8 2A 28 15 12 0A,
31 11 F5 11 55 01 F1 06,
2C 10 5A FE 0A 36 06 F7,
2F E9 0B 4C 2E 14 1A 29,
02 F3 26 0E 12 3B 2F 35,
27 C7 42 47 19 47 4E 23,
43 32 2B 0F 24 0C 16 FB,
33 0B 45 1C 00 0E 21 D9,
0C 24 11 C1 09 40 07 0F,
29 11 0F F0 2E 0D 21 00,
25 19 1B A4 0E 20 D9 2F,
FC 43 2A FB 11 12 FA CD,
1C 08 00 39 43 10 22 30,
39 0F 2D F8 09 0B 20 05,
17 04 51 17 1B 20 07 3F,
48 E8 43 F1 39 34 0B 04,
27 3D 02 36 2B 1A 22 C5,
39 12 1D 1A 1D 04 1B 48,
41 F5 14 F8 0A 0E 08 0B,
F7 3F 50 3C 4D F8 16 0E,
FB 32 26 12 E6 3A FD 03,
1B 34 F7 1D 47 0F 20 28,
63 F1 38 0C 12 17 0D 45,
E4 0D 1F E0 39 3E 1E 31,
15 47 5A DA 09 26 02 ED,
18 E0 03 EB CC 3C 08 18,
09 14 ED DB F4 EC 2C 0D,
10 17 22 EE 18 FD 18 4A,
4B 30 E3 1C 18 E4 21 25,
4B 0D 00 2E DE 1F 1D 4D,
EC 04 1B 20 38 FA 1E 12,
F3 EB 30 FC 05 2A 6A 60,
00 15 0B 07 18 32 03 24,
26 0E 3C 1A 14 3D 13 20,
36 3F 1D FD 1E 2B F4 06,
0A 2E 2F 47 42 F8 F8 F8,
EF 09 14 1A 5F 02 0E 00,
00 39 21 63 E9 26 D8 F6,
3A 12 45 0A 29 EA 08 09,
FA 31 0A 35 0C 2A 61 EA,
4C 0D 14 FE 14 13 D8 1C,
12 20 1B 23 34 5E 0F EC,
0F C9 1A 3A 12 EC 0D 16,
0B 11 29 42 EE 16 49 16,
D6 FB FE 25 FA FB D6 F9,
54 07 0C 11 FF FD 1B FF,
25 01 5B 00 01 38 1F D3,
0D 18 33 1D 22 32 1A 47,
E3 12 05 FB 3A 14 1D 06,
23 03 17 FC 0F 62 33 15,
F7 0C 23 E1 29 2A 01 23,
10 2D 27 F3 0C 21 2E 56;