memory_initialization_radix=16;
memory_initialization_vector=
49 3A 25 BC 1D DA 04 CD,
E9 3D FF D9 EF F1 EE 1D,
3E 02 F7 15 EC 2D 22 3E,
34 36 1F 2E 04 0D FD 1D,
DB F0 04 3D 14 FC 0C E6,
D3 2B EA F2 DE 54 DD F2,
E4 F2 0B 18 F8 2E EC EB,
D8 01 04 1C 03 40 DE 33,
35 21 50 1B 13 01 E5 2C,
FE 12 0A 1A 13 EF BD EF,
04 00 DA F2 1D 1C 2C 06,
1E F8 E3 1B CB EA 33 13,
AD 17 21 07 1C 1A 2B F6,
FC 1C 11 0C 0C 2F 03 F9,
D2 05 F6 15 21 0B F8 12,
00 09 10 1B 2A 10 1B 14,
44 2E DA E0 05 44 16 14,
2E 0A CA 26 F9 2C EE 19,
E9 2B 3E 35 16 06 F2 03,
12 28 F5 3E AE F7 DB 22,
C4 0D 06 FA 10 ED 0B DF,
D2 34 36 04 D2 20 1D 47,
06 0C EE 01 E5 D0 DE F3,
F1 D4 C6 09 27 F1 1B 1A,
3D EA 2C F8 E2 13 16 30,
17 4E F4 E6 0B 28 32 15,
E7 E7 FB F3 0E 18 01 B6,
FA 2E CD 36 15 F8 27 3B,
04 41 0F E3 F5 0C 13 45,
03 E6 BD E0 06 08 0C 14,
EA 14 F7 10 ED 0B F7 35,
2C F3 28 16 1B 17 17 05,
ED 19 D2 CE D3 14 01 1F,
CF 05 1C 09 36 10 C5 03,
D8 1F B0 04 07 F1 40 01,
2A 46 1D 2A 16 2C 13 01,
27 E5 F3 F7 FA 01 EE 03,
46 0E 2D 19 0B 09 2F 19,
10 F3 23 E8 17 35 B9 DA,
0B BC 01 E2 EA 04 30 E2,
14 F0 2C D6 1B 14 07 06,
10 20 CC ED 16 0F F4 07,
21 0F 1E 09 16 F0 FA 02,
15 37 03 2A 24 EF F6 FA,
EA 15 0C DF FE EC F4 46,
47 41 08 02 D0 F0 FA 40,
FE 0E 52 3E 12 1F 01 1A,
01 DD DA 15 F1 24 F4 F9,
1D 03 FE 0B 39 E5 F0 02,
E4 B2 FD 22 27 FC EA 1E,
03 E7 F4 FD 24 06 08 02,
21 D4 28 2D 01 FF F9 1A,
1B DC F7 1C F8 F5 02 CD,
F1 F3 17 0C 29 F6 F8 18,
F5 2A F9 33 23 04 1B 28,
1D D8 08 DD 03 2E 21 EC,
D9 14 E8 07 FA E7 F3 1E,
39 04 FB 0B 0B EA DE 25,
25 F5 10 0B 12 30 DE D5,
E0 0D 18 EC 66 46 4A DF,
3B 26 FC F3 F7 F3 D0 E2,
F6 03 FB E1 FC 08 11 00,
2F F9 1D 09 EB EE D8 4B,
E4 AB 1F 22 1C 14 F9 17,
D9 0C F5 0F 37 0D F0 E7,
15 F7 0E FA C9 0C C3 EF,
34 D8 20 1D 12 A9 D3 E3,
0E 02 2F F8 29 20 30 EF,
CA 00 D7 2C F1 EC 00 3D,
4A DC 2D 43 C0 FA E7 FE,
43 61 13 15 0F 00 0E F3,
17 20 2F 06 1A F2 00 19,
EC E1 0E ED CA 00 F6 51,
F6 DB 23 0C FB FD E0 E2,
08 09 20 00 E6 11 22 DE,
16 DC 0A 14 1D 0B 42 19,
C4 57 E5 1D F6 B4 33 0D,
EB 3D 3C 07 16 13 1A 2B,
FA 14 F2 FA 0C 07 1E F4,
DF F8 20 37 07 36 0B 16,
DE 09 46 15 07 F0 E0 1A,
11 11 DA 44 06 03 EC EB,
F4 F0 01 BC 0B 2C 05 F9,
E2 02 E7 06 F7 24 02 CE,
54 CC 0D D8 EF 27 13 F2,
A4 EF 1A CD 22 FF 0B 20,
09 1D 12 61 19 FD 02 38,
02 F7 38 ED DA 70 35 24,
12 16 3A 33 03 36 FA E2,
DE 0C F3 ED 01 1A 22 2B,
26 0E 26 4E 26 15 0D 0D,
08 41 DB 13 11 D4 D3 FE,
09 06 2A 2D 0E 20 ED D6,
16 18 D6 4A 44 E3 DA B5,
08 EB CF 11 31 14 F9 66,
20 22 45 1C 0D D2 F4 16,
11 9A D3 D4 F1 FC EC F8,
11 F0 FC 1A FF 1D ED E5,
06 09 22 33 0E B4 13 43,
E9 0A D5 0F 1D 33 1B FC,
22 16 07 D6 F2 01 0E DC,
FA 36 15 E4 F0 F7 DA 27,
DD C4 15 19 0B E7 0B E8,
36 FA E5 49 CB 51 EE 0A,
FF 17 0E 40 FA F7 E0 F3,
FC 09 17 16 17 26 ED 10,
26 ED 3B 1E 05 2C 1F FD,
D5 B3 FC 01 01 2D FC 3F,
F2 BC CD EE 15 FA 17 B3,
F2 F3 32 32 DC 05 E4 38,
36 DA D9 DB CE AD 35 F2,
1D EB 08 39 2A FB CF E7,
EA F4 26 E8 AF 0D 49 30,
F2 EF 11 01 1A 3C 3A F4,
47 E0 25 E8 2A E7 F1 11,
2E D7 62 00 00 31 22 E5,
08 F6 B8 F7 12 F4 F9 FC,
25 DF D6 1E 13 1B 27 1E,
14 07 0B 12 09 EA 1B EB,
FE D2 F1 07 0D 39 F7 02,
F3 E5 FB F9 EA E4 38 EA,
FA 26 F9 E5 F2 52 EE 10,
24 C9 2F 9F F7 EB CC F9,
0B 1B 48 BE CF 12 19 B6,
04 02 0C EF 03 FE F0 03,
E1 17 4F F3 2D 34 25 0B,
1C EF 0E 06 17 F0 34 23,
1E E7 D4 F6 09 2D 1B 3F,
DB 2A D0 1D 03 09 CC E9,
2F 1B 07 FD DD 24 03 08,
F5 07 2C E1 13 07 30 D4,
01 50 08 14 28 27 FD FF,
18 0A 18 05 10 2E 34 2A,
22 EB 25 FB F9 DD C9 AC,
09 EA 13 3B E6 18 12 0E,
2D 39 21 18 04 E5 03 E3,
09 0B FF 1D 12 18 2F 2E,
1E 08 D4 D2 15 D7 49 01,
FB 37 E5 EA F7 2C 0E 02,
20 E3 28 DE 2B E2 EB FD,
01 05 2E 19 CA 13 38 DE,
EB F9 0B 03 2E 08 04 7F,
E0 F6 05 18 0A E8 30 0F,
00 5B 1B 0B DD F1 1A FC,
D2 02 15 30 4D 42 13 B5,
F8 DD FD F6 41 F3 18 EE,
09 FF 27 E3 E7 E7 6A 33,
F3 EC F2 0B 02 F2 2C 21,
29 1F 23 24 11 F7 ED CE,
EF 1C 20 13 37 47 0F 35,
19 14 24 4C 14 18 04 29,
F8 EE 04 4E F0 02 38 F7,
FB 2A 38 25 07 1D FD F0,
C1 14 F2 03 FF 30 D3 F7,
09 D3 CB F2 19 D8 31 BE,
34 11 E4 15 EB FC 0F 1A,
F3 16 EF 04 EF 29 11 29,
17 DF ED 07 EE F1 21 54,
C7 E3 1C 2A 27 06 E0 EB,
59 C5 13 D6 F9 06 F0 DA,
00 02 29 0A 20 EA 2C 0A,
F6 E5 02 ED 01 3D D3 FF,
06 0A 1E 27 EF DD EE 32,
0E F6 DC 37 05 05 E3 FB,
1D E6 B7 EB 20 2F 03 2A,
2B FF F2 FE 17 10 F4 F6,
07 D4 18 F8 C3 09 F5 DB,
F5 06 03 2F 42 4C FC D8,
F2 F0 1B D7 09 1A E5 F6,
DE 01 EF 14 11 E8 F4 1D,
16 2F FB 3A E5 0F FE 01,
FF F6 09 FC 32 09 F9 EF,
6C DC 4B DC CE 07 E5 F8,
E3 0C 1F D6 2F 07 4B 01,
D8 27 04 DD 1E FF F8 F6,
3D 12 41 05 2D 36 10 09,
10 DF E3 F4 EA 17 E7 20,
14 04 12 DC EF F7 04 1B,
DE 1B 2C EB 1B 17 45 EB,
DE FE 10 FA EE EE 36 D1,
1C F8 E4 14 08 1C D6 2A,
0F 2A 04 0C FE FF E8 2E,
F6 0B 3E F1 12 3D DC EC,
2E 38 E0 13 00 F5 F5 F5,
E6 11 0F 18 F0 F6 F9 0C,
0F C8 11 3A 21 36 E4 EF,
23 C9 16 1E 1F F5 F4 0A,
12 C5 EF 01 FD 0B FB 0D,
FE 0A D3 17 24 01 18 C3,
CE FF EC D9 D8 CF F1 33,
CE E6 38 25 17 E9 E2 18,
E5 29 E2 A6 30 0F 11 32,
E6 ED 06 EF 1E 1F E4 9D,
E3 F0 EC F5 19 63 2B 00,
E8 0D 45 F3 ED 02 F8 F9,
DA D1 EB 2E 0F 15 08 F1,
FE 00 DC D8 07 F5 2F E7,
2E DC 04 1D 26 0F 1C ED,
EC 28 F8 0F EF 07 10 31,
E6 40 DD 2E 2F 4F 1C DB,
FC 16 FA F7 12 2E 23 28,
01 D2 04 E4 2F 3F 00 27,
24 E7 01 2A 00 FC 19 11,
F3 1C 9C 0C F5 E4 D0 3A,
E6 F6 13 F9 06 0B 3D 27,
FC DF 14 FD 10 33 EE 22,
14 0F 0B FE D1 F0 24 FE,
DD 13 E4 1E 0A 17 D0 F2,
09 02 08 1F E6 25 16 E8,
10 DD F2 C4 E4 13 F1 2F,
1F F7 30 EB 1A 36 0C 09,
11 E4 3D 47 E0 FE 0E 2E,
03 FF 24 E7 EF 2B 32 22,
D9 D2 F3 13 03 E1 A6 03,
E5 16 46 17 0C 14 24 10,
FF CF 17 0E 35 E3 CD 1F,
E3 FB 0E 2C D2 00 F5 01,
E6 1D 21 BF EF E6 30 D6,
F6 41 EF 9D 2B 06 32 70,
4A F2 D8 2B F5 35 B0 03,
05 0D 06 16 12 EA 36 C2,
F0 F6 00 2C 0F 07 03 FB,
DE F6 01 09 4B 1D F6 2B,
F8 12 F2 FB 1A 21 0B 0E,
0D 42 0F EA E2 F6 04 E8,
0C 40 E4 14 13 16 4C EE,
CA 04 13 19 1C 0E EB CD,
29 20 2C 03 1A B7 EC B8,
D5 0F 1A F7 E4 CE 2A 09,
2E 28 CD 07 0C D8 E4 28,
1C 3A 05 0E 03 25 E1 33,
EE 30 CD 1D 08 E7 D7 E8,
1E 07 FB C4 39 12 F4 4F,
08 FB 04 F2 F6 FF CC CF,
21 16 0E 06 07 E9 DF E9,
2E 30 01 D9 F5 2C 1D 22,
F3 EC 3E 20 06 25 04 EB,
C6 14 EE 42 00 1B 25 02,
2D 40 14 E2 F1 E3 13 0F,
C6 17 01 EF FC 18 FB 28,
12 11 25 EF 39 FA 31 01,
F8 FF 11 1E 23 E0 18 22,
80 0A 4B 29 4F 0F 2E D9,
E5 03 12 1C 01 21 37 08,
E7 E7 F8 DD 05 1C 0A 32,
FC EF 16 22 12 27 47 09,
27 D4 EC 27 F6 F4 17 01,
19 17 C2 EF ED F6 E9 D1,
16 03 16 0C 0A 11 0F D7,
D8 25 0A 26 29 DA 29 16,
E0 F9 E1 F1 0A 12 E5 35,
02 21 D7 1B 2C 11 1B 0F,
E4 EC 1E F7 E5 E5 32 12,
BF 06 16 2F E2 F0 D2 F1,
EC 1B 22 01 F7 FC DB 44,
FF 1B 1F 18 EC 04 E7 F9,
F1 04 10 40 D0 F9 F6 EA,
D1 D8 27 07 0F 0C F3 24,
4D 29 C3 F3 01 DD 01 1E,
06 F2 F7 03 D4 FD EE D4,
0E 05 F8 E8 EB 39 08 FF,
F6 47 E7 15 E2 D5 1F 1A,
D7 06 E3 10 B8 E2 0D E7,
23 DF 0A 01 1B 18 E5 04,
F3 D7 47 35 EA C8 34 2B,
E9 F5 E5 FA C8 10 F6 26,
10 42 CC F4 17 27 10 13,
C3 0F FD 26 F9 40 ED D5,
D7 02 33 0F 35 1F 14 FF,
2B 69 01 FF D6 E4 2C 0A,
15 13 E0 E9 4F 0F 06 F8,
F3 EF CF 2C 16 2A FA 1E,
D4 EA 08 1B 27 2D 11 00,
EA E5 25 CC 13 0D 21 07,
14 0D 38 00 0B F9 D9 61,
E1 2A 24 12 32 E9 05 C3,
18 2C E7 09 1F D7 FA CD,
36 13 1E D6 E8 D0 0B 10,
E9 27 F0 35 43 15 19 16,
12 1F F0 3E 09 FE 24 04,
FF E9 3D 0D 04 11 F2 FE,
DE 0B 0E 19 3A 0A FE ED,
06 02 F1 17 1E 33 B8 0E,
E4 1E 23 0C FD 03 0F E8,
3A 09 3A 04 02 10 19 FC,
35 43 16 09 06 1A DB 0D,
0A FB 53 26 FF F0 FE 32,
E4 4D 13 14 16 04 32 2C,
DF 04 F9 15 12 32 D3 26,
ED F6 0A 0D 23 48 06 0B,
16 04 B6 D2 44 FF 1F 09,
22 21 41 34 12 E0 F3 31,
03 F1 DE DF EA F2 08 EB,
D3 E7 04 17 52 2E 1B F6,
D5 47 E6 E4 44 3C E3 33,
FF 25 01 22 F1 F4 EC F6,
1E C2 F2 EA 07 ED 25 07,
0D D8 54 23 16 19 0D 2F,
0F 41 5B 0F 34 0B 01 19,
2A 21 1F 18 F0 F5 10 20,
10 F6 07 E3 2E 05 28 01,
0C FB 25 DA F4 21 37 F2,
0F 4E EF D3 FA F8 DC 36,
FF DF 0A 1C FF 14 00 0C,
F8 CC FA 50 F2 13 B5 13,
0B E8 F2 0E E1 35 E5 EE,
20 21 13 3E 34 E0 13 16,
F0 EE E6 31 E4 12 F4 F5,
FB 03 3E 20 2E 09 E9 0B,
2E EC 4C 14 D8 03 06 0C,
14 E9 ED 25 EB FF F9 CF,
EA FF 3E 06 F6 19 1A 18,
39 20 42 E4 BD F4 10 1E,
0B 31 20 09 09 18 17 F8,
18 31 26 1A E6 42 A7 FA,
EE 2A 41 FB 13 08 F2 26,
BD 23 F3 0E 2C 11 1C 20,
CF C0 E7 1E F5 F3 43 E5,
31 F5 FC 17 05 F0 F6 EC,
FF 28 03 20 0D D5 C9 00,
EE C3 C5 0A EA 31 08 45,
FA F5 F7 D7 07 F1 DC 43,
FB FF F7 DD 30 FF 10 F1,
29 0B 09 14 F8 25 60 03,
3E 08 E8 25 F1 3F CD E2,
29 37 D2 DF 52 E8 E7 04,
26 06 BC 2F C8 11 1D DC,
EE E9 D8 08 08 14 0C F3,
04 56 02 FC 34 F5 D1 21,
ED FE 23 34 E6 06 13 E7,
12 EC 0A D0 F5 18 10 1E,
F0 1B 45 F6 FB 2A 0C 01,
D8 1C 30 1E F4 05 F7 15,
0A 10 17 ED 00 26 08 F2,
0F 14 FC EA 01 14 26 F4,
FE 17 14 F4 2D 01 38 06,
0F 0D FF 51 34 F2 45 D8,
F5 33 52 2D FF FB 50 FA,
EF 2F 3B FB 24 1B E7 06,
F4 03 FF F1 E7 06 E4 01,
F2 D1 E6 F6 06 09 F9 09,
DE 47 C1 F1 31 EF D6 04,
EB EE 43 1F FA 1A 16 F2,
8B BF 13 F5 35 00 F3 D0,
55 41 30 24 35 25 39 ED,
AA F4 2F F7 4F 2C 23 E9,
07 FD 12 2D 07 0F 14 19,
11 F1 22 15 0C 19 E8 21,
F5 3B 01 BF 23 1A 19 F0,
26 19 FF 07 08 F0 FB EA,
39 BC BC 15 24 04 08 FE,
F0 DF 04 12 1C 05 2F 20,
49 EC EC BA 39 10 0A 0E,
1D FA F5 10 01 1B D4 3E,
0E CC 1C F6 E6 11 10 FD,
FD 1B F2 E2 D9 17 04 D5,
E9 3C 0C D7 F3 2B 36 D3,
E6 36 11 05 15 1B 00 EE,
0F 04 D9 EF EB F5 DB AF,
F3 D4 27 F9 D5 FB 23 DD,
0A F1 FE FC FC BF D8 FA,
1E F9 10 15 1E 45 F8 FF,
C7 E5 4C 01 0F 2D FB EC,
1A 38 26 E1 EB FC 14 DB,
1C 00 00 08 FD 08 D7 13,
DF F2 F0 CD 1F 4A 21 D3,
42 CF F9 18 10 3A 1D 25,
E0 D1 26 28 13 DD 0E FE,
1E 08 1D 03 09 25 BB F1,
BE D5 22 B9 3D 60 04 13,
21 FA 1E 63 E6 06 2C FB,
15 16 CA 5F 12 17 13 13,
1B 01 FD F5 C2 2C 31 C7,
29 E1 C0 3A 0C 2B 17 04,
26 1C F1 12 F1 EC FF 23,
E7 F1 E1 0D 02 3C 0B E7,
EF 13 14 E1 24 22 18 0A,
F4 FE F1 D1 23 74 DD 12,
09 0B 2B E6 FD F3 E7 F6,
D2 28 DF 24 11 EF 51 35,
EB 2B 06 32 0E C9 D9 31,
22 0F EA E6 FE F4 B5 00,
EF F0 08 3E 29 FA 0E 08,
2E 15 FA 14 DB AF 22 D0,
E4 E0 F0 09 0A D3 F5 1F,
00 F0 1F 0C 2A 22 E6 FB,
25 11 3A 06 E8 E2 4B F0,
1B D9 26 EE 00 D5 0B 2B,
D7 02 0C D2 2A 1A EF 25,
23 BD 27 48 07 FA 16 20,
E9 28 DB 1D 3C 0E E9 FC,
F2 F5 13 F1 E5 27 0D 21,
E2 E8 2A 2D F1 19 FF FA,
E2 06 E9 14 0D 12 0B E9,
FC 0B 21 1B 18 3E 2B FC,
0A B7 15 B8 28 FA 50 22,
D2 1F F5 C7 04 13 07 F4,
D8 1B BB 10 5C 0B DF 1E,
1C 15 F4 17 2B 16 10 C7,
43 DE 33 E6 FA 21 FF 01,
08 03 32 55 03 BA 3D 5E,
F4 3C DB EF 0D 30 D8 C7,
CF 3B 26 23 0A FE E5 F6,
1C 30 0C FD 24 D0 23 0E,
25 D0 EC CB 3C FE 0B 0C,
1B 32 1D D9 F4 C5 0D 1B,
06 15 FD F5 EB F9 1A 40,
C0 30 35 15 F7 35 01 0A,
07 F2 34 24 1E F8 FC 0A,
1B 18 0D 28 17 BA 12 D5,
0B FE F1 D8 FE 0D DA 03,
EF E3 2B 41 E8 CB 07 CC,
F0 D2 14 F5 F1 00 23 06,
18 12 29 04 10 F7 E1 1C,
06 E5 23 ED EB FC 07 16,
CA F6 0A 13 2C 35 2C 12,
1E 0D FD 09 E7 F2 07 F1,
A1 10 61 F0 18 F8 EF 2E,
00 D6 16 13 F1 F5 6A 04,
F3 F6 22 FA 15 17 C9 2D,
2E 04 EC F4 09 0F F0 F2,
EF F8 D1 39 15 42 DC F2,
18 05 CE ED 34 15 D7 C2,
0A 5A 11 FA 25 1B 12 23,
03 08 00 21 1A 00 D8 F7,
36 35 D8 27 E0 E2 F1 45,
DF 09 01 C5 13 17 02 DB,
EC 15 0C 3F 03 03 E9 04,
13 F2 34 16 20 04 08 03,
C4 02 F2 15 C9 14 39 F3,
0F 16 13 12 E0 45 29 E4,
23 0F FE 2A 22 37 3E EB,
1F 2E 25 E3 E9 12 38 D5,
F5 1F 19 18 10 E1 FC D0,
0C 01 21 2C 14 07 0D F2,
F5 24 CF 1D 03 E1 01 EB,
E5 FD 1A F7 4D ED 2A 06,
E7 1C 19 FE 1E 11 19 F7,
FB 28 34 12 37 47 05 E2,
F9 EB DF 0B 2A 20 1C 20,
EA E0 16 00 09 15 48 DC,
13 3C 16 14 FC F8 B9 F8,
F2 1D A8 0E D9 EF 01 DD,
18 12 DC 0F 15 EA AB 34,
10 08 0A 32 15 0A 19 10,
F3 FD 05 02 1A 2D 1A F0,
3E D9 04 1C A6 16 0B 38,
1C 40 F4 FB 2B 10 F0 02,
F8 FC F3 F7 08 3E 32 0C,
0F E5 0F 1D 39 02 21 06,
C1 EF EF 09 F8 F9 C5 2A,
FC 01 42 1D 27 EA 31 CC,
21 E7 F6 22 0E 08 0D 27,
E0 EB 16 33 08 D6 D1 23,
EC FC 4A F4 C3 08 F3 FB,
DF EF 30 1B 21 C3 3B C7,
C5 38 3C E6 30 16 4A E3,
12 19 F6 17 DB 20 2F 1B,
08 1A E6 F3 D1 13 F9 FD,
F6 33 ED 1E E8 43 06 0F,
ED 1C E1 DF 24 2C BB 52,
0D 13 E4 D8 23 0E F4 01,
F9 19 00 0A 07 00 C4 0F,
05 14 E7 10 1C 4F E5 F5,
09 0A 54 0A DB 2C D9 1F,
E6 32 F9 DD 16 F0 01 CD,
02 B6 3E F3 FD 21 FA 38,
F7 23 C0 FF 13 11 F6 09,
22 F3 15 E9 1C 37 DE 0B,
23 30 18 DC 2F 34 D3 F7,
26 06 1E 2B CD 15 2E 0E,
FC 0B 2C DA 37 E0 3D FD,
29 EF 11 F9 24 38 EA FA,
B6 33 4C FB 21 1B D5 EB,
2C 18 FE 12 2E 15 36 29,
E2 28 15 0F AC 09 12 47,
E7 D8 36 C5 11 F6 F7 D7,
BE E1 31 F3 23 19 0F FB,
0F C4 12 FA 0D 02 D6 C8,
FB D7 EE 37 48 D1 D5 0B,
00 0B 1A 2E DA 1B 0C E5,
15 39 CE 02 F2 D5 06 F1,
E2 F4 D9 DA 1B D7 36 35,
FD 09 0F F0 2C 17 1B 46,
13 4A EC 29 2D C3 22 03,
03 13 01 FC F7 3B 32 F2,
50 FC 21 F2 EC 2E C9 26,
0D 1E 1C 15 D4 1D 0F 08,
EC F8 0E 14 26 3F 35 E1,
07 16 EA 21 E5 10 37 DD,
F1 04 B9 37 1A 0C 03 09,
10 38 15 FA 6D EF EB E3,
2F F1 E1 21 F0 D7 22 F8,
ED EC D9 01 04 51 B9 19,
EF 1A 99 D6 FB 2C E9 04,
EC 19 16 26 2A F8 E3 ED,
0E 05 06 19 26 F5 00 E2,
F3 DA D4 CE 00 E8 F7 D1,
1A D7 E7 F9 EA EF 08 F4,
EF 25 E2 19 F6 13 15 3D,
AE 32 F2 13 05 FE 2D EB,
B7 10 15 DA 0B 31 CB E0,
3A 0F E2 E7 FA ED 06 DC,
1A F8 CC F7 34 BA 12 E8,
D0 07 EB 1D 1B FE CC 24,
CC F3 16 DA DB DB 41 FB,
FC 2C D7 D6 FF 32 FF D2,
ED 27 0F D1 F8 F5 EE E5,
10 07 FA FA EA 3B 05 01,
3F FF C4 28 CE 07 2D C1,
19 FD 38 28 D7 03 0F ED,
43 04 18 E3 65 F9 2D 06,
F3 47 43 4E ED EA 04 3B,
0B 2A 33 17 F6 3D 11 FE,
24 D2 10 E2 D7 32 D9 EC,
F9 0F 28 D5 15 2F F4 19,
15 ED EA 15 01 65 1C EE,
1A 06 07 1B E2 23 FA F4,
1C F6 D2 CF 14 12 DD 14,
22 21 01 2B 19 25 D3 E6,
4C 2B D5 F9 43 1C 2A EF,
D6 0C 19 11 06 64 32 EF,
19 17 28 4B D9 EB 50 12,
27 D0 00 28 03 4E F8 FE,
FF DD E3 2F ED E2 19 08,
44 E1 17 4E 14 F2 1B F9,
0A 0E 0B 0E 25 40 F4 D8,
FB 2D F7 FD 0A 3B AB F8,
00 F8 C1 06 EB 04 45 14,
F1 0C FE D9 24 0A D4 14,
37 F8 26 DF D8 04 B3 04,
F0 23 07 D2 11 02 0F 1C,
F1 21 2B AB 1E FB 1B F0,
3F C9 09 FB 29 EE F7 C6,
F8 0E EC F7 30 ED D0 4D,
EA 0C 13 19 B2 10 0B EA,
D7 04 24 0E 1A E8 DB F4,
00 CD 0C 46 DB 03 0B 00,
FB 0A 2B F6 F9 0C FA 23,
1B BB 18 1D 3E 01 E5 24,
E5 29 D6 3E FC 52 F7 FF,
DF 09 C2 08 1E F7 24 23,
03 0C 1B 0A 1F 49 F8 E8,
F3 F1 14 DB 31 CA 40 EC,
1A 04 DE F3 D1 DE 0D F0,
24 39 13 06 05 2F EE 03,
12 1B 0B 1E 03 E1 02 14,
EE 1B 1C 1B 08 F3 15 D5,
23 10 F7 FE 27 40 E8 FB,
DA 10 2A EA FE 07 25 EC,
F8 2A 2B EA 03 EA 04 23,
0D FE 0F 2B F3 E5 CD 43,
D7 02 F4 27 0E 0A 10 25,
E1 0D 0D 10 07 05 07 C8,
18 12 FF D9 04 FA 3C 1B,
1C E9 0D 09 E5 14 EB BE,
18 1C 06 36 05 03 FB 00,
11 FF 06 F4 19 15 17 03,
F4 13 F4 FB 15 2F EC F3,
0D 32 10 2C 5C 11 40 FB,
26 09 BF E0 01 E2 26 01,
0E 02 0C CE 1F F4 D0 09,
F7 05 FF CF 12 FB DA E7,
24 0D 29 EC 07 E1 39 13,
23 17 19 05 F2 0C EB E1,
1A 3B 14 14 09 1B 03 C9,
0D 21 1F EF F5 53 C4 D6,
E5 33 34 A6 E4 EF 21 24,
DA 21 BC 15 F6 17 26 08,
36 ED D2 F4 22 30 37 0D,
09 28 23 0C F7 F5 1B 1A,
F8 34 E3 18 B3 33 DA 0F,
29 03 07 EB EA EE 48 F4,
03 27 1D 0A 17 E0 F5 E5,
F9 02 E7 10 0A C0 2C EA,
04 21 17 00 34 E1 28 1E,
20 15 E2 06 1D 30 21 E4,
21 0C 2C 19 F7 34 B2 F3,
F1 EC 42 13 16 14 0E 3D,
1F 4A 0C E4 06 EE 34 CA,
1E 39 C8 08 0D EE F3 4D,
F0 EC 07 16 36 D8 12 D0,
C3 24 0D FD EB 00 01 1B,
E1 27 F7 D4 55 27 1E EE,
F2 D4 18 D4 A3 16 11 3A,
39 0F 29 10 FA 35 F2 F5,
13 04 F9 E5 24 E1 15 EF,
03 3A 03 FB DE FD DD EB,
40 F8 3F 15 FE 06 D6 2F,
12 E6 0E 6C ED ED 30 EA,
10 0E 08 25 DF 35 2A F1,
93 4E 12 06 0D CD 09 2D,
FD 20 34 FC F8 15 E5 12,
45 17 1D 10 67 F5 00 F8,
E4 0E A8 03 F8 CB F6 F7,
FC 31 F0 14 EE 35 22 22,
E3 DD 0B FC 13 41 FD FC,
E5 E4 12 F7 02 04 C4 05,
EB 25 DE E5 E5 14 2F 00,
00 FB 00 19 44 01 15 E8,
FB 31 24 37 E6 DE 11 B9,
14 DB 19 FD 3E 0B D8 F8,
E4 E1 1A 11 ED 24 21 11,
50 05 12 57 17 40 A5 C4,
27 05 69 1B BF CD F2 0D,
04 29 F7 29 D8 BC 1B 00,
FE F5 E4 EE E3 EB E1 C6,
0E 1B 14 BF 30 C7 D9 CD,
EB DE 33 23 01 3A D2 DC,
C5 04 3E 04 06 EA 0B 40,
06 13 E4 01 03 F5 14 E6,
C8 1D 26 F7 08 00 E6 33,
0C C0 31 FE F9 0C F2 2D,
C9 0F E6 29 F5 1A EC F0,
DA 2A F8 12 FA FC 0D 16,
1A 13 1C 02 FC 0C C5 F6,
02 17 2E 0E FC 3C 0B 13,
BF 08 0F 14 1D D9 FA EC,
C8 25 D5 E9 30 0C EF FD,
18 FD 38 ED FC E9 35 38,
D9 F6 22 4A 03 0E 16 5F,
16 2C 26 FD D1 1C 0C E0,
3D 29 14 3E 15 19 0D 05,
11 F6 FD 23 F3 3D 09 FE,
26 2D FD B9 0D CF 06 2E,
D3 35 D8 3F FA 0A E5 00,
15 FF C6 EB 31 28 19 BE,
ED 03 BC FB FE CC 28 EF,
31 11 33 31 23 14 18 08,
E0 4D 1C E2 0F DC 08 56,
21 CE EE DA 35 DC 3A 3D,
FB 50 20 C1 F5 61 2F 30,
ED DF F2 FA 1B D4 F7 71,
0C F2 EB 21 FA 07 01 0F,
DE 26 26 E4 C4 1B 3E FE,
EC 2D 24 1C EE 4B 25 E4,
0B 05 36 FE F5 D7 E8 28,
39 1E E1 13 4B ED 18 AE,
15 CE F2 D4 EE 2B 1D C9,
B9 16 D8 FC DF EC 2A EC,
21 00 FC 2B BD 19 38 04,
1A 03 09 13 0D 0A F7 CD,
F2 ED 4C AE 2C F7 5B 23,
37 4A F7 BA DD 03 F3 27,
D7 2B E5 FD 15 28 40 0E,
10 22 0B 56 DB F8 13 28,
60 EC 11 68 E7 FA 1C 0C,
DF FB B8 34 FA FC D3 3A,
E0 09 16 E2 0D 0E 09 1C,
0B F2 1B E7 DD D4 29 EE,
15 DA 32 E1 39 0F FD 1E,
07 26 CB 10 07 08 E8 FA,
29 05 03 15 47 F7 56 FB,
62 ED 00 23 FB 31 35 F2,
19 0C FF E3 3F 38 1C E8,
FC 1D 1D 1F 17 32 FF F1,
DF D7 0E 33 4A 2E 1E 41,
1B FB 47 30 FF 2B 45 09,
F8 01 23 0B EB 17 19 EB,
16 35 D2 13 20 0F DF D0,
FB 23 32 E5 18 EB 3D E0,
1E CB 58 DD 01 F5 31 CE,
EB 05 FF 1E E5 F5 F3 F8,
D5 C7 16 F2 0B F2 EF 1B,
23 2D F1 10 0C 0E ED 34,
ED 09 32 F2 20 06 FD 0B,
2E FE 14 FB 57 F3 2A F8,
17 F4 DD 08 30 1B 38 F4,
1B FE 5E 0B C3 21 2D 00,
29 C8 AB ED F3 4B 16 06,
EB E7 44 FA 2A 3C 10 15,
24 ED F0 FB D4 DA FE 0C,
F0 E4 14 F3 DB DB 1C 0C,
00 F8 DF DE C5 BC EF EB,
E5 FF 31 E8 16 01 E6 EB,
11 F4 D2 17 15 28 41 FC,
EF 57 2E F5 3C 19 B2 19,
06 0F 1F 05 EA 2D C8 27,
F4 EE F5 12 18 29 3E 3E,
05 19 17 0A F1 FD 12 06,
08 2B E2 07 22 14 F0 08,
FD 06 FD 19 D1 E0 0F FF,
0C 2A 21 EE F4 0A 23 3E,
F0 15 4E 0A 20 25 0B C9,
DD DA 01 05 27 ED 26 CB,
DE 10 E7 01 25 DD 0F 31,
F2 4B 0B 36 00 36 DE EA,
EC FD 00 15 0F F7 EF F9,
F0 22 1F DD 26 F3 1F EF,
29 FC EF 04 46 EF F7 DC,
DE F0 05 00 E4 32 2D FB,
2E 14 0B 22 EE BC EE E3,
F4 16 D8 26 2B 35 0F D7,
FC B1 AF 05 F4 50 E8 24,
0D E7 2B 19 09 FE 31 45,
ED E7 06 0F 15 F1 0C FB,
DD E9 E1 2E 1F 4A 13 0D,
F3 FC BA 2A 51 F9 26 AF,
F2 0E F5 F6 21 F4 DD 05,
CD FB 2A 26 49 F4 BF 0C,
BB 2A 15 C2 25 D2 D8 FC,
05 FC 2A EB E9 F8 2A F2,
FC 51 DB 11 F6 E4 91 21,
FB 10 CE E8 EF 08 EC F6,
33 F7 F6 4C ED 16 1C 22,
26 26 01 0E 19 CC EB E7,
0B 2A F5 35 2A 53 E0 54,
E6 F2 0A 2A 24 13 F3 44,
00 E3 B2 06 23 02 18 F0,
22 DD 0B 26 CC 28 22 E4,
03 EA F7 08 F7 3B 03 38,
E1 FE 14 25 FE 1D 26 E0,
26 CC 3F E7 17 50 DA 62,
11 D7 21 12 0C 1A 00 02,
27 2D E7 DF 00 CE 3A 42,
E8 F9 5D EF 18 1F D5 3E,
EB 12 EA 23 1A ED 02 B3,
38 F6 1D 21 F9 2D 1C EF,
EA DB E6 F1 E6 DE D3 F9,
1F 26 1C 22 39 30 C5 DB,
E0 01 2E 1B 06 08 0F F7,
CC 06 CE 22 05 C9 F3 19,
E0 06 BC 13 0B 12 0C F3,
1A 39 DA 12 03 0C 2E F9,
01 2F 28 11 45 15 EB FF,
FF FA 04 1C 08 1F E2 EA,
33 CF 2C 13 16 24 CE 03,
DB EA A6 05 04 01 39 17,
38 B4 14 F6 13 22 CE 03,
EC 0F 2D 25 28 12 F4 07,
1A 01 27 2A F9 1D 1D F8,
FB 2A F4 E2 07 EC 20 07,
10 1A DF 4D F0 01 13 1E,
09 14 25 01 FE 24 F4 EC,
42 E8 2A 48 3D 30 39 FE,
E5 F1 06 06 EC CA DB 24,
ED 24 19 38 1F 02 EF 07,
00 FA EF DA E0 E4 0A 0E,
D3 07 ED 15 25 1A DA FF,
D3 F0 F4 3F 39 F4 DA 11,
F6 E9 E7 0A 3B 0E 23 EC,
68 14 05 D4 3E EA EB 10,
04 29 0C 3F EE 28 D6 04,
28 2D 03 2B 1B 23 18 37,
40 4A 32 1A F3 FE 15 13,
15 F6 47 12 0C 39 25 BF,
44 D2 1C F5 19 40 0E 0E,
E4 15 DF 26 F5 53 EE FD,
01 DB F4 12 02 15 2C 14,
29 3A 2D 0B 38 0B 1A 03,
F8 08 20 F6 13 05 4C EE,
17 DD 59 16 FC F0 43 28,
DB 3A F6 D6 30 02 D8 04,
F7 05 1F 2E 15 10 03 0B,
1F CC 13 03 DE EC 2D F4,
2B 0D DB 0B 0D 13 24 08,
28 0B 2B 01 3D 25 1F 58,
ED DA DC D4 F1 F7 15 14,
F0 28 5B 2E 02 09 13 40,
F4 47 FA F6 1C 22 D0 48,
45 E8 EA 1E 06 EC FE 1D,
D6 EC 23 0C 02 2C E3 12,
04 B0 DA 04 24 EB 37 1F,
C3 17 E7 02 26 F0 EF E8,
22 1A D7 13 F5 05 F0 E1,
1D 26 F3 0E 1F 55 E2 F1,
06 F6 29 F2 3E 1A 0B E3,
0D 38 10 1D D7 08 13 26,
F9 30 1E 4B 06 04 23 DE,
0F 04 18 F9 08 E1 DE F7,
DF F5 13 35 C5 EA 22 FD,
09 EF 0C ED 0D DE FA F9,
11 11 44 3B 05 FD 10 23,
15 D8 08 10 24 2F 17 FB,
FD 18 F9 E5 16 FC 60 CD,
F3 F5 01 F3 12 F7 51 01,
15 FE 21 1E 08 03 20 F8,
F6 F8 0B 0A 21 F5 02 04,
35 F7 E4 E2 01 22 2B 41,
2A 1A 08 FC 08 24 E8 11,
F0 29 FF 15 0A 03 0A F7,
F7 28 24 F5 0D 42 E3 36,
0B EF F0 E2 08 09 2E E4,
DB 08 34 19 17 FC E8 02,
19 CA FC 19 EE 05 11 ED,
03 22 BE C5 ED D8 DF 15,
CC E7 FF 00 FD 02 DD DE,
EB F8 26 20 1E F9 F0 54,
F3 FA E8 D8 19 60 13 5F,
D8 E9 23 34 1C 10 F2 FA,
E0 0F FE 06 FF 08 39 23,
24 24 DC 2A 14 F9 01 F7,
1F EC 42 1E 39 EB DA FB,
D8 E8 28 53 18 30 FE 2E,
00 05 3A 25 FE FB 25 EA,
0B 17 17 0F 22 DE 06 03,
37 E3 19 1F 13 06 2C 12,
2D 22 0D 05 E9 11 F2 2E,
4A F8 EC CA 06 F5 E2 21,
E5 1A 2D F2 3A 2B 02 EC,
F7 F4 C7 04 20 0A C9 1D,
37 13 04 24 DC 30 E4 1D,
1F 15 FB CE 0C 01 23 1A,
EC E9 F4 04 FE 2D 19 FE,
10 36 F5 C6 AB FC 25 13,
EB FF 2A DE 4E 14 EF 03,
2C 2B 0C EF 3F 05 D5 EA,
FA 09 07 33 EC 12 EB EC,
17 25 FC E8 08 DC B4 2C,
43 D8 CA 18 F6 0A E5 4D,
08 5F 44 13 2B 29 EE 25,
E2 DA F7 16 12 D9 0C F8,
43 1B 3A 29 FC C1 DF 1E,
13 F7 0C E4 1A 2F F7 04,
FD 0F 42 F1 FA 14 F6 CB,
13 00 0B FF 1B CE F5 01,
3D 15 00 24 19 F5 E2 12,
CC E3 38 FB E9 E4 F7 38,
15 28 0E E3 01 10 F5 36,
F9 1D 16 E7 0E 12 F2 1D,
E7 D6 C5 10 F7 1B EF 71,
24 1F 44 FD 4B DD B7 F1,
E8 BE 05 0D 11 34 2F E7,
C8 FC FC 1E F7 1C 13 D8,
5E 03 F7 00 15 29 12 00,
F4 24 60 22 13 01 3E 1C,
E7 34 22 DE 2A DB 20 CB,
F4 D1 DB EE 0D E9 27 DE,
20 C3 FD 0D 3A D1 17 D6,
EB F8 1B FE FC 2C EF F4,
0F ED 06 E9 F3 FD EE 0D,
21 20 0B DB FC 11 F3 19,
B9 D9 3B 0C 43 32 0A C2,
0D E2 E2 FA EE 0F 05 C2,
EC FE 12 CC 3F 38 2E EF,
ED 16 1F B5 DE 31 11 F8,
F5 EB 16 DE 24 C1 0B E2,
1E 0D E7 FC 0A F1 CB 29,
0A 12 43 D4 FF D7 21 DF,
22 2C 0A D4 16 2B DC 22,
D4 EB 2E E4 1F EF 2F FF,
2A 01 F0 E7 14 29 05 04,
06 1B C3 18 B7 E7 17 33,
BA 2A 15 EC B5 2D 23 45,
F4 D3 01 EC 36 09 B9 E5,
42 EE F8 ED FC F7 1F F1,
32 FA 0A F1 00 0D 25 E7,
00 F3 FF EC EF 01 E2 04,
FA 24 04 DC 08 38 00 34,
27 2C 20 05 D1 18 00 F5,
EC 26 EC E2 E9 F1 E1 02,
03 2B 02 E5 D4 08 25 79,
01 07 03 D3 F5 2A 1E F8,
CA 1C 23 2B F8 FF FD FE,
03 F2 F8 0D 1D 11 36 22,
F8 E4 E0 B9 23 0B FB FC,
FB 68 06 25 04 08 D0 F0,
23 02 35 04 EB EB D4 13,
D6 16 0E 01 FD 2A 25 16,
EE DC F4 0E 02 16 E2 0B,
1D E2 01 F6 16 14 4A F0,
27 08 18 0E 00 11 24 EB,
CA 12 D7 32 2C 13 23 EC,
17 09 FF 68 14 F3 D9 CE,
F7 54 4C BA 0C E2 FA 4C,
05 06 05 27 E3 17 06 ED,
D2 18 DC C2 29 E0 B4 C4,
40 F2 13 00 EC 0E 20 3C,
17 4C 09 F4 2D 21 27 FB,
00 0B 17 01 13 1F ED DB,
FC DB 0B FA 38 29 EC 12,
25 EC D7 2A C9 1B 46 F9,
EF 0C 27 0D 01 0E 1D D8,
04 06 10 FD D9 E8 12 22,
DA BE C6 58 FF FD EE DD,
47 1A 0E 26 23 12 CC 3C,
37 D0 27 09 11 2B 0D C5,
EF C8 01 E5 F4 FE 0D 13,
0C 03 06 1F 16 EE 14 1E,
D3 29 F6 16 21 00 04 09,
30 03 00 F7 35 07 D2 F1,
E0 30 F6 F6 2A 20 32 06,
CC EB E9 06 EA 04 10 FC,
FE 11 E2 1E 01 46 25 FF,
33 D3 50 2C DE 1D 07 D4,
E9 FB 3C FE F0 F0 03 EB,
E2 2D 0F 30 01 16 09 EA,
15 EC 39 08 F0 FB 0C 06,
36 D8 22 34 4B 3E E7 3F,
12 E1 F3 29 1E 22 DA F6,
EF 13 E9 0D 31 12 0A 10,
24 EA EB F9 0B 12 F2 FA,
50 0B F2 06 FA FF 36 27,
22 0C 3C 03 EB E2 24 0A,
E5 37 EF DA C2 5A 12 00,
B1 DE FA 10 FF F0 0E E9,
05 07 07 1E EF E9 1A E2,
15 32 0F CC FE 25 FC EC,
15 E9 E9 F9 01 23 FE F5,
EB 1F 11 F1 24 E2 0D FF,
14 E7 0F 38 EF 09 16 DB,
02 DF F8 1E 1D 20 19 E8,
16 04 14 06 19 07 FF F4,
F0 D7 22 0F 0E 01 34 10,
0C CD E6 EC 2C 1E 0B FC,
2D 16 0F D7 DD 26 C9 FC,
43 F5 EB EA 1B DF 46 33,
D7 D5 FB 1B 10 23 E9 F1,
FE 20 08 08 06 17 1D EF,
E6 C7 52 FD 08 1F 1F D2,
EF 13 DF FF 03 F0 22 F0,
B2 F8 FB 08 C9 DF 12 38,
28 0E F3 F3 26 02 E5 F0,
D3 EF C0 EA AA 1F 40 ED,
EC 30 F1 01 1F F6 13 F1,
03 10 37 00 E8 2B 02 4B,
F6 24 12 21 14 15 00 14,
0F FC FF 32 C5 07 F3 41,
E3 61 11 F5 23 1D CC 06,
16 36 30 1B 36 22 3F 14,
F6 07 16 14 2D C3 1D EE,
0E 32 F6 CE D8 3B 2D E6,
B9 E7 4E 2B ED 20 FC 23,
19 1C 0C 3F 32 EF E7 10,
F4 07 EA 0B F5 04 47 CD,
FE 1E B1 32 4A FA 3F D3,
26 31 E9 E8 F8 DC 02 3A,
19 05 EA E4 F7 E9 0D 07,
41 D4 10 1C F1 E5 25 09,
0E 25 28 2B 22 0D CD ED,
D7 40 02 16 17 06 EF E3,
40 E3 D3 E0 E1 17 E3 13,
E5 11 EE C2 21 FD CD D0,
2E CC 1C 0D 28 2B EC 33,
E0 F1 08 DC 26 4C 0B 03,
02 33 27 2A A5 1A 58 E1,
40 16 E6 F5 00 3D 03 DA,
0A 23 12 25 49 E3 EE F7,
02 F8 C2 E5 2D 37 FB CA,
22 E6 E8 FA 18 FE CD EE,
22 15 0A 21 FC 3F 39 23,
30 25 F6 1A 03 D0 18 DE,
12 0B E0 37 C7 2E FC 2A,
0A E3 D0 D7 CB C5 06 1F,
FE E2 05 E8 0E 13 B5 17,
1B 03 FC 4E EE 16 CA 07,
FC DE 3C 0E 3C 23 12 F6,
07 EE 0E F0 FE FC 3D 29,
03 2A F3 F3 15 45 DD FB,
22 21 0D 04 1F 3A 22 04,
C0 29 06 08 E0 E2 42 19,
10 2D 1E 0F 22 0F F8 FE,
4D FD 1E 5B 08 08 13 E5,
04 35 2B 25 F5 13 F7 41,
22 08 26 CE 06 05 19 F8,
B4 49 CC FB 18 35 0A E5,
FC 2A E9 0A E4 07 26 D5,
2D BD E1 D6 00 D2 FA ED,
FB 04 F0 0C 31 E4 2C 02,
C7 11 25 FD 13 EB 14 EC,
01 FF 28 BD DB 48 25 BE,
15 07 0C FA DC 0A F3 D8,
47 24 07 03 C4 F0 E4 14,
C8 10 2D 21 2C 0C D7 F8,
CD 0F C9 1A F6 11 F1 D0,
EF F0 C4 22 F8 38 1E 55,
F5 18 47 01 1D 03 00 D8,
02 35 F2 03 38 F9 05 1B,
17 F8 36 0E DC 04 09 F4,
0F E9 31 EE E9 0A 23 1C,
2B 40 15 14 E9 0A EF 1C,
E1 C2 22 04 FE 17 EC 05,
F2 14 01 26 06 EB 06 01,
0E 00 F0 FC 34 E4 06 FD,
E5 E6 22 FE 09 24 03 36,
18 FE 0E FF 25 24 1F 0F,
01 42 06 F6 34 0E CA 37,
F5 2D 53 12 15 1F C2 29,
D9 2B E3 EB 11 0D 09 12,
0F 08 FB 18 EF 0A 1B C0,
E3 FB EB D3 DF 2B 09 F7,
FA C1 F7 30 07 F4 F4 EE,
F4 1F 47 B0 F5 15 21 00,
0A 15 0C 13 F0 36 F3 C9,
2D 37 0B E9 CD 06 00 0D,
D6 23 01 1B F7 CB FF 1D,
FD FF 18 19 26 C5 06 03,
D3 FE F4 23 18 02 EF B8,
17 2B DC FB 27 01 24 F4,
27 5F 21 37 03 DB 12 00,
40 29 D7 F9 EC F4 FC F1,
D8 1F FA 2F 16 11 20 EA,
DA 1E DB 4A EC EA EC 0E,
11 0E DB D9 05 28 08 C3,
4C 13 06 0F B8 F1 11 F9,
2C EB 3F CC 2C 47 FE 0D,
F2 EB 13 05 EA E7 1F 5B,
12 1B FE 07 19 EE 10 02,
E6 34 14 D5 04 EC 03 F5,
EA 0B 09 D9 FC 09 1C 15,
11 21 FB F7 DD F9 E7 0E,
23 F5 F8 C3 18 12 FC 11,
03 BE D9 39 0F 29 E3 04,
04 FE FF 29 49 E1 FE 22,
F0 22 E8 4E 0A EF BA 27,
48 F2 F3 12 13 16 0D 25,
20 3A 04 0E 21 32 04 FF,
F5 01 08 05 D7 F0 0F 11,
22 F6 05 3F 2F 1B 10 0D,
3C 37 15 1F A7 04 01 02,
05 02 FD F7 D5 F3 E0 0A,
3E 22 0C 13 F3 2F 15 1B,
07 13 E4 FE F0 B0 18 28,
CC 0E 25 04 02 3A 22 0C,
FD 4B 14 27 42 08 12 07,
31 E3 EB ED E9 01 B0 57,
D6 FC 0E D9 1E 24 1E 03,
05 A3 E8 ED 0A DB 35 BE,
0C 13 F4 01 0B 02 1C 09,
F6 D2 E8 F9 CC E2 F9 E6,
20 FF E5 BB F7 F5 17 0F,
04 2A 35 01 03 1A 1A 63,
E1 28 15 01 54 FB 1B 3D,
05 0A 1D 0A 1F 1E 2E FC,
D9 10 04 18 1C F0 EE 0C;